#version: 0.2
Ġ a
i n
Ġ t
in g
Ġ s
Ġ w
Ġ .
Ġ o
a n
Ġ b
h e
r e
Ġ in
Ġ p
i t
Ġ m
Ġ c
l e
e r
Ġt he
i s
r o
Ġa n
a r
Ġ g
Ġ f
Ġo n
Ġ h
Ġ d
l a
a l
i r
e n
a t
Ġan d
Ġm an
u n
Ġo f
Ġ is
o m
Ġs t
c k
l o
it h
Ġw ith
o r
l d
e t
e s
Ġw h
Ġt o
Ġw om
o n
i d
Ġ ,
Ġs h
an d
Ġd o
k ing
e ar
e d
Ġwom an
o p
r a
Ġt w
Ġa re
Ġtw o
he r
s s
Ġb o
i c
Ġ y
ir t
u t
Ġp la
Ġa t
Ġp e
Ġ re
op le
Ġpe ople
al l
o un
Ġ l
u p
t ing
Ġpla y
c h
Ġw ear
Ġwear ing
Ġt h
er s
Ġ r
w n
Ġsh irt
it e
Ġst and
s t
Ġc h
g e
Ġ j
u r
Ġ n
Ġs it
id e
i le
Ġy oun
Ġyoun g
i ld
Ġb a
Ġ lo
Ġwh ite
Ġh o
u e
la ck
ir l
g h
Ġb lack
Ġc o
Ġg irl
e l
Ġb l
o t
Ġf ro
u m
un d
Ġwh ile
Ġh is
a d
Ġw al
Ġdo g
Ġbo y
Ġbl ue
Ġb e
Ġo ut
t s
i l
Ġre d
Ġw at
u s
a m
Ġ e
v er
Ġg ro
c e
Ġ ro
Ġsit ting
Ġm en
Ġch ild
r i
Ġho ld
Ġstand ing
Ġlo o
Ġst re
Ġplay ing
ar d
Ġstre et
n t
i m
Ġgro up
Ġdo wn
o o
Ġa s
ro und
Ġ la
re e
Ġs m
Ġfro nt
Ġ her
o w
v e
Ġwal king
lo w
Ġ he
k s
Ġhold ing
k e
Ġh a
Ġt a
i on
Ġs om
Ġg ra
en t
Ġ k
u l
re ss
Ġon e
c t
Ġwat er
s e
b o
i e
s ide
Ġc ar
Ġp a
Ġd ress
a ch
Ġba ck
y ing
Ġb y
Ġw or
Ġp o
Ġth ree
u gh
Ġ up
Ġf o
um p
re en
Ġr un
Ġ ra
i gh
ar k
t le
Ġf or
Ġn e
Ġ le
Ġth ro
Ġb u
Ġc ro
u it
Ġg reen
h ing
Ġwom en
re d
a ck
Ġs w
Ġ v
Ġs k
f or
Ġb ro
Ġj ump
Ġl it
a y
Ġloo king
Ġr id
Ġs e
for m
in d
Ġm a
on e
Ġh at
re n
b le
Ġs n
Ġl ar
t her
Ġb i
Ġlit tle
oo d
Ġlar ge
Ġo r
Ġo ther
Ġout side
Ġs ide
Ġy el
Ġbro wn
t o
ers on
Ġyel low
Ġp erson
Ġo ver
b all
Ġsom e
lo n
Ġchild ren
Ġc on
Ġs p
Ġsn ow
Ġthro ugh
l y
a in
Ġt ra
Ġh and
Ġb all
i an
e m
u re
la ss
c he
a ir
Ġfro m
Ġthe ir
x t
n ing
y c
Ġo ld
in k
Ġbu ild
ot her
Ġbuild ing
Ġj ack
Ġsm all
Ġne xt
Ġw a
igh t
Ġin to
i g
Ġjack et
g round
a p
w d
Ġs o
Ġcro wd
al k
Ġt e
v ing
Ġn ear
Ġdress ed
s h
bo ard
Ġgra ss
an ge
Ġan other
Ġrun ning
d y
Ġ it
Ġc lo
Ġrid ing
Ġa r
p p
at e
r u
ie ld
Ġs c
Ġc am
p h
Ġa round
c er
a ge
an s
w alk
is t
Ġor ange
l ing
i ck
oun t
yc le
Ġof f
Ġf ield
Ġta ble
Ġf a
lass es
r ying
Ġp er
Ġwor k
Ġstand s
Ġbe ach
e p
Ġback ground
Ġg o
Ġp ink
Ġm o
t ure
d le
Ġbe h
Ġbeh ind
Ġa ir
Ġside walk
f f
in e
it y
Ġs un
Ġjump ing
Ġper form
Ġ un
Ġp ic
er a
Ġgirl s
Ġsh or
ch ing
Ġd r
Ġsit s
Ġto p
Ġhe ad
Ġsh o
Ġro ck
b y
en d
Ġs ur
il ing
Ġbi ke
Ġ '
Ġth at
c ing
Ġcam era
Ġg u
Ġw all
Ġloo ks
i p
i re
at ing
Ġpic ture
Ġp ark
t e
Ġas ian
w ay
t er
Ġt al
Ġha ir
Ġc om
u d
Ġc l
Ġdog s
Ġc ity
Ġw ood
d o
v es
Ġb us
an ts
Ġg uit
Ġguit ar
e at
ic e
Ġj e
Ġfo ur
s k
Ġre ad
Ġplay er
u b
Ġold er
a s
g et
Ġso c
Ġb ic
ount ain
Ġh im
Ġd an
am e
Ġha s
ct ion
Ġgra y
oo l
Ġwor king
che s
il l
lon d
Ġb lond
or s
Ġsoc cer
Ġgu y
et hing
Ġsom ething
Ġa lon
Ġm id
ver al
Ġp h
Ġse veral
Ġhe l
Ġp ar
l le
Ġtal king
Ġco lo
Ġshor ts
ph one
Ġwal k
Ġb ri
Ġla dy
le s
n g
Ġun i
q u
Ġclo t
sh irt
Ġl i
Ġsk ate
Ġp ants
Ġwal ks
an t
Ġboy s
Ġb en
Ġsm iling
Ġa c
Ġthe m
Ġuni form
at ion
Ġje ans
l l
Ġa d
Ġplay s
es t
ig n
Ġd ark
i ve
g g
Ġbic ycle
Ġalon g
Ġp re
Ġp ro
Ġc he
Ġb r
Ġro ad
Ġsw im
k es
f ul
Ġk id
Ġf ood
ri p
o re
Ġs uit
Ġskate board
um b
get her
Ġg ame
Ġcar rying
Ġto gether
Ġs and
Ġhold s
Ġp ur
Ġf lo
a re
im b
Ġba se
Ġben ch
w ard
Ġout do
Ġ "
Ġ und
Ġa bo
Ġ us
Ġlo ng
Ġg et
g s
Ġpa in
Ġcom p
Ġcl imb
Ġund er
Ġb al
s ing
Ġfa ce
Ġt an
Ġba by
Ġm ountain
Ġthe re
Ġd irt
a le
Ġm us
Ġg lasses
Ġm ot
Ġst age
le d
Ġar m
ut h
Ġst rip
Ġs ing
Ġhand s
Ġs ign
Ġwa it
h a
Ġf em
he s
Ġat t
o k
Ġt ree
Ġch air
Ġ en
Ġfo ot
Ġco up
Ġbo at
Ġco at
Ġc a
Ġm ic
Ġta king
Ġdo ing
Ġp ool
Ġwh o
ld er
Ġa m
i es
el l
Ġwat ching
Ġjump s
Ġh or
st ru
Ġw ind
Ġd e
ro ss
Ġte am
Ġmic ro
Ġba sk
Ġe ach
Ġma le
Ġbask et
Ġs he
Ġsh op
Ġcoup le
m et
u st
Ġbase ball
Ġsw eat
f t
Ġgro und
p e
m p
Ġhel met
Ġare a
p le
ul l
Ġb ar
Ġc at
a g
Ġd ay
Ġp at
en ce
Ġb and
Ġmot or
e y
ot o
Ġph oto
Ġt ri
Ġmo uth
Ġfem ale
ic an
Ġcon stru
Ġf l
Ġmus ic
Ġmid dle
Ġbe ing
r y
Ġsp e
ur ing
Ġloo k
Ġra ce
Ġc ap
Ġa f
Ġcolo r
Ġperform ing
Ġsur f
Ġstrip ed
Ġconstru ction
g lasses
en ts
Ġe x
p ing
Ġbo t
es s
Ġg at
Ġto y
Ġro om
Ġhor se
Ġpur ple
i o
Ġac ross
Ġsw ing
Ġo p
Ġman y
i red
Ġto ward
Ġsun glasses
Ġs a
o king
Ġm ar
Ġwind ow
Ġcro ss
Ġre st
Ġs et
Ġw he
Ġfoot ball
Ġe ating
Ġa pp
Ġst ore
Ġa g
Ġrun s
m ent
Ġtra in
m ing
ck s
Ġkid s
Ġt en
Ġf la
n er
Ġf is
Ġd is
n e
Ġit s
w ing
Ġus ing
Ġo b
ha ired
n is
Ġread ing
Ġmicro phone
a k
Ġs l
re l
Ġf ire
Ġt re
Ġten nis
g ing
Ġad ul
Ġpre p
an ce
Ġwat ch
st r
Ġst ick
ar ing
Ġplay ers
Ġmotor c
us e
j o
Ġm ark
Ġwork ers
i v
or t
Ġa ll
Ġf low
Ġba g
Ġs le
Ġb at
Ġflo or
Ġwat ches
Ġag ain
Ġwood en
w s
Ġfo re
gh t
Ġrid es
t y
Ġc an
Ġpa st
Ġr i
Ġbasket ball
Ġo ce
Ġe lder
Ġagain st
Ġoce an
Ġth is
Ġop en
m an
Ġd uring
Ġen jo
ve red
f e
Ġsh ow
Ġf r
Ġabo ut
Ġbri ght
Ġc le
f it
Ġd ri
Ġelder ly
at ed
Ġdan cing
t ed
a ur
b e
ad e
Ġdr in
Ġbus y
Ġclot hing
Ġout fit
Ġcolor ful
c es
Ġh igh
an ing
Ġwait ing
Ġmark et
Ġsur round
Ġclimb ing
Ġsm ile
Ġget ting
ver y
Ġha ving
Ġtre es
Ġrest aur
Ġco st
Ġswim ming
Ġoutdo or
Ġl ight
Ġthe y
Ġcost um
Ġmotorc ycle
Ġpa ss
i al
Ġrestaur ant
rel la
Ġ ve
Ġ umb
Ġumb rella
i x
Ġshirt s
p er
Ġma king
Ġh ill
Ġd es
Ġpo sing
Ġin side
Ġin str
Ġinstr um
Ġh an
le ss
Ġf e
ru ck
lle y
Ġsk i
Ġpo l
Ġco vered
o l
Ġb ear
Ġsing ing
Ġt rying
Ġf ence
Ġm at
Ġle a
Ġk it
Ġp ie
Ġc ell
Ġg r
Ġsle ep
s c
il y
Ġf ive
ut ting
Ġbo w
Ġbri ck
Ġar t
j e
Ġ ice
Ġl ine
lle r
Ġe v
p la
Ġ very
Ġb es
Ġpat h
Ġbi g
v el
Ġhat s
n y
Ġk ick
Ġbo ok
Ġd i
v ers
Ġla d
ro n
Ġbo ard
m er
Ġr ide
Ġtoward s
Ġsweat er
Ġsome one
Ġin d
yc l
Ġco w
Ġcar t
Ġbes ide
a st
Ġn ight
Ġla ke
Ġm e
Ġh u
Ġbo dy
Ġj o
che n
Ġkit chen
p ack
Ġt ruck
le r
Ġbi k
Ġsurround ed
Ġm et
Ġclot hes
Ġri ver
Ġcell phone
g ra
ck et
Ġback pack
Ġgrass y
Ġla ying
Ġp us
Ġc or
Ġt r
Ġoutdo ors
Ġarm s
che d
Ġbear d
it ion
Ġcomp et
Ġtra ck
Ġla ugh
Ġc re
al s
Ġdr um
o d
Ġst air
Ġv est
Ġother s
ir d
i z
s es
Ġs ub
Ġtan k
Ġto d
dle r
Ġb lo
ck ey
Ġpie ce
je ct
Ġpain ting
Ġco ur
c or
d ing
Ġe le
Ġtod dler
Ġh ard
Ġbo ot
Ġt ur
Ġm ach
Ġcolo red
Ġphoto gra
in es
Ġst ep
w e
Ġbo x
b r
t ic
c o
d er
Ġbr id
Ġshop ping
Ġpa per
ff e
y s
Ġcon t
ear s
Ġk ne
Ġwork er
Ġtri ck
Ġabo ve
er ican
Ġst one
Ġsk irt
Ġp l
Ġenjo ying
Ġuniform s
a ble
Ġev ent
Ġsnow y
Ġaf r
Ġte en
Ġgat her
a c
he red
Ġdo or
Ġhan ging
u ch
Ġg i
Ġsnow board
Ġmet al
Ġguy s
y m
Ġdrin king
Ġp ra
Ġf am
Ġread y
Ġf ull
Ġe y
Ġh i
Ġb re
Ġp ul
Ġn o
Ġh it
Ġc ount
Ġwhe el
ic h
Ġho use
Ġaf ter
on s
Ġsleep ing
Ġn umb
Ġpo in
Ġsho es
v ed
Ġafr ican
c a
ri end
Ġadul ts
Ġsh a
an k
Ġta kes
Ġa way
Ġc ur
Ġr ight
Ġ 2
Ġon to
at her
Ġd ra
Ġst ud
Ġv ie
Ġcow bo
is ts
Ġli ke
Ġgo ing
Ġgat hered
Ġpo le
Ġph one
Ġra in
o ot
Ġla p
Ġrock s
Ġbrid ge
Ġwa ve
Ġle ap
an e
Ġf il
Ġsho u
Ġdan ce
Ġbot h
em p
Ġsmile s
Ġf riend
Ġsk y
Ġfam ily
Ġw e
on es
Ġro pe
b ble
i um
Ġam erican
Ġg ym
Ġlo t
Ġho ckey
Ġle aning
Ġstep s
at es
Ġwh at
Ġflow ers
ar f
Ġcat ch
Ġsub way
Ġcrowd ed
Ġshor t
Ġpo se
l ic
Ġcon c
Ġcomp ut
Ġle ft
io us
gg ing
Ġf ountain
Ġb et
Ġc lass
Ġatt emp
el ling
Ġg ear
Ġprep aring
Ġcowbo y
Ġw et
is h
Ġa p
ers ey
Ġw in
ar t
Ġha ve
em ent
Ġfla g
ar y
Ġj ersey
h air
Ġv o
Ġshirt less
Ġdis pla
s el
Ġh om
Ġs qu
Ġsun ny
i er
Ġwh ich
Ġra cing
Ġc ra
Ġcostum e
Ġd ist
Ġfis hing
Ġst op
we en
Ġp ub
Ġo pp
Ġbet ween
n ed
on g
Ġcar ri
un ch
im e
Ġcon vers
Ġpra ct
Ġw r
Ġma ke
Ġbal lo
it ing
Ġgra ff
Ġgraff it
en ing
Ġro ller
Ġg lass
Ġchair s
Ġe qu
Ġvie w
a ut
Ġlaugh ing
Ġpub lic
Ġgraffit i
Ġb ut
Ġmach ine
Ġnumb er
Ġg ent
Ġgo ld
Ġset ting
Ġfr is
Ġcor ner
h ic
Ġfore st
Ġvo lley
Ġfris be
Ġb ed
Ġbe aut
s uit
Ġs il
Ġinstrum ents
are s
Ġsweat shirt
Ġpla id
Ġne w
Ġdr ink
Ġvolley ball
a v
Ġc ig
Ġho od
Ġbot tle
Ġve hic
Ġra il
Ġgent le
Ġfrisbe e
i ence
Ġstair s
Ġpla st
Ġapp ears
Ġba gs
Ġche ck
Ġadul t
ycl ist
Ġpol ice
Ġa ud
Ġst e
d u
i ful
Ġt all
Ġb low
Ġbeaut iful
Ġplast ic
Ġco uch
b or
Ġ ed
re te
Ġg lo
d e
Ġs elling
Ġra mp
Ġconc rete
ag ed
Ġc e
Ġl ist
Ġk is
Ġspe a
r ic
ct ure
Ġse ated
Ġst at
at s
Ġ ent
o f
Ġc up
Ġst ro
Ġb ird
Ġst ra
Ġoff ic
all y
Ġhom e
Ġsc arf
Ġequ ip
Ġmid air
b er
s hing
et y
r ing
Ġequip ment
Ġsc en
Ġa l
Ġco oking
Ġta ke
end ing
are t
Ġcomput er
Ġwood s
Ġdo es
Ġcig aret
Ġp utting
ct or
Ġsl ide
Ġob ject
u g
he d
ch ool
Ġv ar
Ġp ad
Ġne ws
p s
Ġed ge
Ġsp or
Ġskateboard er
Ġfr uit
Ġpus hing
Ġst ru
Ġmusic ian
ro om
Ġn et
Ġwor ks
Ġmountain s
Ġpicture s
Ġg ar
l in
op e
Ġlad ies
Ġboot s
Ġm ul
Ġnear by
Ġt at
Ġdist ance
Ġs chool
Ġthro wing
t op
u ff
Ġele ct
Ġj ust
a ce
pp ing
el s
Ġwhe re
Ġho t
Ġfis h
Ġap ron
Ġs er
he ad
Ġin t
Ġpo ses
Ġrid er
o u
on y
Ġbi kes
Ġsho vel
ph ones
ar m
Ġch as
Ġbuilding s
Ġan im
Ġwin ter
i ff
ic al
Ġp ick
Ġe mp
Ġperform s
Ġey es
Ġaud ience
Ġcigaret te
t oo
Ġp it
Ġplay ground
Ġtat too
Ġst ation
Ġcross ing
Ġche er
Ġf all
Ġh ors
re st
Ġbu cket
Ġpul ling
Ġtra il
er t
Ġn ot
Ġinstrum ent
Ġhors es
le t
id ing
Ġla wn
p ap
Ġsp la
Ġpre s
Ġvehic le
Ġp ot
Ġsm oking
Ġnews pap
o ut
Ġra is
Ġstat ue
Ġpar ade
Ġpain ted
Ġpract ic
Ġre s
Ġlea ves
Ġpar ty
Ġsa f
o s
Ġ 3
Ġf un
pp ed
Ġcon cer
a il
in s
igh ts
Ġrock y
gg les
in i
up p
Ġv end
Ġdri ving
m s
Ġcle aning
Ġs ix
Ġk n
Ġphotogra p
Ġfriend s
Ġ ite
Ġy ard
ad ing
or k
es ts
Ġfil led
Ġl ying
e red
Ġdispla y
Ġm other
f la
Ġha pp
Ġcar s
Ġfe w
Ġgi ving
er y
Ġcre am
Ġm ud
Ġsaf ety
Ġc utting
lo ok
Ġbe er
Ġve get
Ġgentle man
re nt
Ġro of
Ġstru cture
Ġbl ank
Ġbu bble
Ġgo al
v en
Ġmar t
Ġm il
Ġconcer t
in ess
Ġma kes
Ġb ull
Ġp ile
ir c
Ġclo se
Ġb an
al le
a z
Ġm em
le e
Ġl and
Ġc la
Ġd in
Ġsho re
Ġspe ct
Ġpla t
oun d
Ġre la
ach ing
Ġpain t
Ġglo ves
on d
Ġ ear
Ġdo ck
Ġbus iness
Ġc ut
Ġne ck
iv al
Ġcarri es
Ġblank et
ke y
Ġl in
Ġro de
el ing
Ġpo st
Ġmart ial
Ġd ire
Ġshow ing
Ġbre ak
lo oking
Ġshou lder
c her
Ġon look
i ke
n a
id es
ct ive
ing s
at ors
Ġcour t
Ġsnowboard er
Ġread s
Ġc irc
ld ing
Ġjacket s
Ġp ed
Ġfor m
Ġdrum s
Ġrode o
Ġba re
Ġd ig
Ġra iling
Ġnewspap er
Ġsuit s
Ġspor ts
Ġveget able
Ġsurf er
Ġcount er
Ġ qu
Ġfl ip
Ġdrin ks
Ġbow l
Ġma sk
Ġam ong
Ġcostum es
b an
Ġvar ious
u gg
at er
Ġv ests
Ġpark ed
av y
s er
Ġw rest
Ġbow ling
c ting
Ġm on
Ġgo ggles
i f
Ġfa cing
Ġgr ill
Ġb unch
et te
Ġbik er
Ġpoin ting
Ġf ix
igh ting
iv id
Ġonlook ers
c l
Ġde cor
Ġpractic ing
Ġh ar
Ġdress es
Ġar ts
Ġspect ators
in t
Ġprep ares
Ġbat hing
Ġv io
Ġteam s
Ġind ian
Ġgym n
Ġk ay
Ġtal ks
Ġstud ents
o ks
s et
Ġa lley
Ġfe et
u ck
Ġw ed
ur al
Ġpar t
Ġlist ening
Ġt ent
Ġfl ying
Ġre f
Ġcl iff
Ġscen e
Ġelect ric
Ġswing ing
Ġdi ffe
i ge
l f
s lee
Ġfla gs
Ġdiffe rent
Ġat h
Ġ im
Ġp ut
Ġto ur
Ġlad der
Ġt y
Ġpar king
is e
Ġtr un
Ġvend or
Ġrela x
Ġwed ding
Ġt ie
f ore
Ġb ra
Ġwa ves
Ġdes k
ffe e
n ic
Ġco ffee
Ġfo l
Ġflow er
sel f
Ġt ro
Ġt ime
Ġsurf board
b b
Ġst aring
Ġco ll
Ġbe fore
Ġli fe
Ġsw e
Ġsh ot
Ġre p
Ġyoung er
Ġco ver
el y
Ġpro du
m en
Ġskateboard ing
Ġspea king
c ts
Ġt ub
us h
lo red
Ġle ather
ycl ists
Ġlap top
Ġt alk
Ġind ivid
Ġindivid u
Ġvio lin
Ġphotogra ph
Ġsil ver
Ġstro ller
Ġs led
et h
Ġle g
Ġmat ch
Ġemp ty
c ed
Ġs ort
Ġle ans
Ġconvers ation
m b
Ġle gs
Ġkick ing
Ġf ing
Ġsc oot
Ġatt ire
Ġblo ck
it ary
Ġc ement
at h
Ġst ar
Ġob ser
Ġfore ground
Ġp r
c ers
Ġlo c
Ġpur se
Ġsp ra
Ġso ld
Ġs ay
Ġover looking
Ġs ame
Ġite ms
Ġsc reen
Ġski er
Ġbeard ed
Ġleap s
d ge
Ġex am
m e
Ġc al
Ġf ur
Ġto w
r ist
Ġg un
en s
ul p
Ġcompet ition
Ġclimb s
Ġbal d
t h
Ġc ard
Ġg ard
Ġsc ulp
ca se
Ġwr iting
s ed
Ġsm o
Ġair p
ess ion
Ġanim al
Ġsh ad
eat h
Ġc r
Ġpla ce
Ġbicycle s
Ġoutfit s
Ġkne eling
Ġattemp ting
Ġmil itary
Ġw ay
Ġm ed
Ġg ood
Ġbr ide
ver t
Ġget s
Ġmusic al
Ġme al
Ġlin ed
n s
al low
Ġtable s
Ġsign s
o us
Ġteen ag
Ġch rist
Ġballo on
Ġswe ep
Ġwear s
Ġgo lf
Ġin do
ur ban
Ġbik ini
p ed
Ġc and
Ġpro t
Ġgro cer
Ġtri es
Ġart ist
Ġphotograp her
k en
t on
Ġstreet s
est ri
Ġchas ing
i ed
Ġs ite
Ġch ines
c u
cor d
tic ip
Ġchines e
d ition
g er
t or
Ġg re
Ġvegetable s
Ġt ire
Ġclo wn
Ġgar b
m as
Ġbr un
Ġsurf ing
Ġce le
Ġplat form
n el
Ġb ur
Ġb el
ar ate
Ġsing s
Ġy o
ff ic
Ġbal an
Ġen g
Ġhelmet s
Ġgather ing
Ġcount ry
Ġkis sing
Ġsay s
Ġf ighting
Ġh am
Ġpro te
Ġgymn ast
h o
Ġw ra
Ġf ather
ip s
Ġhi k
b s
m o
n ess
Ġp ull
Ġmusician s
Ġcele br
Ġto ol
ap e
Ġsun set
ud dle
Ġcont ain
Ġblow ing
n ers
Ġm eat
ld ers
Ġfa ces
Ġchrist mas
Ġse a
iz ed
Ġbrun ette
a ched
Ġad vert
re ad
Ġin cl
Ġc as
Ġv ide
Ġwalk way
a ff
Ġm ir
Ġtra ffic
Ġca ke
Ġclass room
i b
Ġv is
Ġalon e
Ġus es
Ġballo ons
Ġw ell
Ġthro w
Ġcom ing
les c
Ġsand y
Ġres ting
Ġtrun ks
Ġgard en
o sing
Ġ 1
Ġro w
Ġle dge
Ġtra cks
Ġbubble s
Ġscoot er
Ġadvert is
Ġdi ving
Ġhu ge
Ġmir ro
Ġp ier
Ġho op
Ġse em
Ġstre am
Ġup side
Ġma les
Ġath le
Ġcoll ar
ath on
f oot
p ers
Ġwood ed
Ġpar ticip
Ġcle ar
Ġcompet ing
Ġhi king
Ġmar athon
Ġcour se
Ġteen age
Ġfol low
k i
in ing
Ġst o
ul ar
Ġca fe
Ġswing s
Ġshow s
Ġpres ent
a ches
v ice
Ġs on
Ġn at
Ġtra sh
Ġex p
i a
Ġ ;
Ġc ust
Ġr ug
Ġpro ject
Ġcan o
Ġped estri
Ġref le
Ġf est
Ġcro u
Ġwa ving
Ġpro f
Ġbat h
Ġdire ction
dition al
Ġhel ping
Ġbare foot
Ġp upp
Ġto wn
Ġr ing
Ġche f
z a
Ġ urban
Ġd a
Ġpla te
Ġl ights
Ġbright ly
Ġboot h
Ġoffic er
Ġcheer le
ic s
Ġstre t
Ġpass ing
Ġopp osing
Ġhead phones
Ġski ing
Ġstra w
Ġmirro r
Ġch ain
Ġtra ditional
Ġsl iding
Ġ i
Ġk arate
Ġsand als
Ġch ur
Ġlo g
Ġco lle
Ġhe ld
Ġmicro sc
Ġty pe
Ġcust om
Ġst ad
ch air
Ġla b
Ġleap ing
g es
Ġs lo
Ġm ade
er ing
ro w
Ġsculp ture
Ġstad ium
Ġa ss
Ġf ight
ent al
t ail
Ġst uff
Ġto u
end s
Ġop er
Ġmul tic
Ġt un
b ers
Ġsh allow
Ġta ck
Ġsk ating
Ġperform ance
Ġsqu are
Ġincl ud
Ġchur ch
Ġwat ers
Ġpa ck
Ġwait s
ast er
Ġdoor way
Ġmultic o
Ġhapp y
Ġse en
Ġc ent
Ġh al
Ġh ur
Ġma g
Ġmem bers
Ġvide o
Ġo ri
Ġe at
Ġrep air
Ġho le
Ġk ha
Ġshou lders
b and
t om
Ġ z
Ġf air
Ġse at
Ġtoy s
o c
es e
Ġlo w
Ġwa shing
Ġenjo y
Ġtur n
l ling
Ġh all
Ġst un
Ġoff ice
Ġgu ard
Ġdirt y
Ġcoat s
Ġfix ing
Ġball s
r al
all s
Ġte lesc
Ġdig ging
Ġthe se
Ġse e
Ġwa s
ac her
Ġkay ak
Ġg ian
Ġf en
Ġst ring
Ġtra mp
Ġbot tom
Ġwindow s
Ġstick s
a les
Ġth ird
Ġdan cers
Ġatt ached
Ġhu gging
Ġbe low
Ġse c
Ġac cord
Ġcirc le
cu ss
Ġcano e
Ġaccord ion
Ġbo oks
Ġk ind
Ġpre t
Ġde ck
Ġumbrella s
Ġlea sh
Ġp ond
Ġrun ner
Ġle ad
ol ine
Ġtr ans
Ġmultico lored
Ġbe ige
ip e
Ġdes ert
Ġmake up
Ġcheerle ad
Ġ 4
Ġs ell
le ep
Ġto ng
ugh t
Ġrun ners
Ġthro ws
Ġs us
et s
Ġco ok
Ġas leep
Ġla und
Ġperform er
Ġmul t
Ġgrocer y
Ġgian t
w ork
Ġmo ving
Ġno se
Ġtramp oline
i ent
q ue
s o
Ġc rying
Ġc yclist
Ġmicrosc ope
f ts
z z
Ġre aching
Ġho w
Ġpa ir
alle n
Ġt er
Ġp an
Ġsc aff
Ġswim suit
Ġcat ching
Ġdra wing
Ġsus p
Ġscaff o
Ġro und
Ġwet suit
Ġ es
Ġsp ot
Ġde ep
Ġdin ner
Ġrelax ing
Ġ 5
Ġla ys
Ġhim self
Ġprodu ce
Ġprof ession
Ġtelesc ope
l ight
y ard
y le
ut e
Ġsing er
Ġtri cks
Ġjo gging
Ġhood ie
slee ved
Ġin fla
un g
Ġv an
Ġdr y
end ed
Ġclot h
Ġori ental
in ned
Ġf in
Ġf ra
ward s
Ġindividu als
Ġe mb
Ġwater f
Ġsweep ing
b la
n eath
u al
Ġa ct
Ġunder neath
Ġattemp ts
Ġgold en
Ġm ust
ck ing
st ac
Ġcat ches
Ġob stac
Ġin f
Ġm om
Ġf eat
Ġst r
Ġat op
Ġclo sed
Ġhead s
ag es
Ġdis cuss
Ġmat ching
f ight
Ġ end
or ch
Ġre t
Ġco l
Ġhe avy
Ġd em
Ġch o
Ġpic nic
Ġbic yclist
ful ly
Ġspe ed
Ġpedestri ans
Ġcent er
c y
d s
Ġsa x
Ġey e
Ġoffic ers
Ġpad dle
Ġfall ing
Ġfest ival
c om
Ġw ine
Ġm ix
Ġd on
Ġe xt
Ġte eth
Ġunder w
Ġsle e
Ġpul led
Ġhar ness
Ġstuff ed
b ack
ro ad
Ġra cket
Ġmo st
Ġcle an
sc ape
Ġpl ants
Ġroller bla
Ġhal f
Ġf allen
at or
Ġde vice
Ġpus hes
Ġspra y
Ġkha ki
h one
Ġt ile
ar row
ugh ter
Ġw ide
Ġcam ou
Ġbr an
Ġapp ear
Ġspla shing
Ġmud dy
Ġdecor ated
Ġcamou fla
c as
Ġ key
Ġc ri
er man
Ġf an
Ġd un
Ġgro om
Ġgo es
Ġfire fight
Ġhu la
Ġshad ow
g ers
i ble
it al
Ġmar ching
Ġal so
Ġinclud ing
Ġin s
Ġm op
Ġd en
Ġlo ne
Ġcar n
Ġcan e
d ling
l ane
p es
w he
Ġf re
at ting
Ġsp r
Ġmo ve
Ġbal c
Ġca st
Ġex c
Ġcur ly
Ġs um
Ġco ld
Ġe ats
Ġdan ces
Ġapp ro
st and
Ġta ken
Ġboat s
Ġcover ing
re t
Ġf ig
Ġwh il
Ġlo ts
Ġje an
Ġcross walk
il ling
Ġro b
Ġhe re
ler s
Ġstun t
Ġcarn ival
Ġwhil st
re s
Ġp ort
Ġback yard
Ġpo ss
Ġra c
Ġindo or
Ġobstac le
Ġcamoufla ge
u zz
Ġche st
Ġfem ales
Ġbut ton
Ġkn it
Ġfing er
Ġtong ue
Ġre fe
Ġli ft
Ġband an
Ġme et
Ġblo use
Ġpoin ts
Ġspea ks
Ġwra pped
Ġda ughter
in ning
Ġw arm
ro nt
id s
ow er
Ġse ven
Ġte le
Ġcur b
Ġhood ed
Ġprot est
Ġsax op
a se
m ed
t able
id ent
ic ycle
Ġtun nel
Ġcheerlead ers
Ġkey board
f ting
g o
g on
Ġw ire
st er
Ġfl ies
Ġpol ic
Ġkick s
Ġcheck ing
ert ain
Ġairp lane
Ġteenag ers
d ress
Ġm ural
al m
Ġro be
ve ment
Ġpo uring
sk inned
Ġopen ing
Ġwheel chair
Ġrail road
Ġpick ing
Ġden im
Ġst ack
Ġr ub
Ġj ugg
Ġhel p
Ġgi ves
Ġent ertain
Ġloc al
Ġhur dle
i ers
Ġn ice
Ġpo lo
Ġrug by
l s
u red
Ġb m
Ġp ian
Ġp uddle
ip le
Ġprofession al
Ġs upp
an g
Ġn ap
Ġpa vement
Ġmult iple
Ġbalc ony
c ut
Ġf ans
Ġsh oo
Ġho se
Ġbe ver
Ġso ft
Ġbr us
Ġbar be
Ġsl ides
Ġmotorcycle s
Ġpass es
Ġsleep s
pla ce
Ġhit ting
Ġham mer
Ġinf ant
p t
v ie
Ġp en
Ġp et
Ġm ess
Ġro lling
Ġguitar s
Ġcolor s
Ġbandan na
Ġpolic em
Ġclimb er
Ġpass en
Ġpresent ation
l ine
Ġst ool
Ġn avy
Ġpa ved
Ġad j
Ġsurf ace
Ġfig ure
Ġp ony
Ġon ly
Ġbe am
Ġkne e
Ġprote ctive
s p
Ġf arm
Ġcar p
Ġtra vel
Ġjumps uit
Ġmotor b
Ġdri ves
Ġbalan cing
Ġtou ching
Ġins pe
Ġpian o
Ġshoo ting
Ġover alls
Ġsho e
qu et
Ġli ving
Ġrais ed
Ġseem s
i fe
il t
Ġlaund ry
Ġ ke
Ġp ig
ar s
Ġpe ace
Ġpit cher
Ġwrest ling
w k
Ġs im
Ġprep are
Ġroller sk
a king
u dy
in a
Ġg az
Ġbo u
Ġl ugg
il low
Ġsp ort
Ġfa br
Ġland scape
Ġslo pe
Ġinfla table
Ġlugg age
Ġin ter
it ed
Ġd ust
Ġdo ll
Ġim age
Ġput s
Ġbm x
it s
Ġm er
Ġpo s
Ġpo les
Ġsk is
Ġse wing
Ġswim s
Ġwaterf all
Ġdem on
er ial
il la
ly mp
Ġwall s
Ġam us
Ġneck la
a w
Ġo lymp
it or
Ġg ate
Ġf ir
Ġred head
ent ly
Ġpa pers
Ġmo d
Ġflo ating
ust ic
Ġenjo ys
Ġdes c
Ġmag az
Ġrefe ree
Ġdemon str
Ġbo un
Ġth o
Ġdan cer
gg y
Ġspla s
Ġpull s
Ġscaffo lding
i pping
Ġf ar
Ġha y
Ġteam m
ak ed
art ment
Ġopp on
Ġopp os
Ġgoal ie
Ġp ipe
Ġc one
Ġsh ip
Ġy ork
Ġch op
ent ion
Ġtra ctor
ap ed
Ġcl ub
Ġdes ign
Ġcheck ered
Ġsmo ke
Ġgood s
Ġemb ra
j am
o es
ul t
Ġpa jam
Ġex er
Ġgr ind
Ġsha ving
Ġbird s
Ġban ner
Ġgarb age
b ile
ed s
Ġre aches
Ġco bble
Ġpain ts
Ġkis s
b ow
c ial
f a
k a
Ġp op
Ġwith out
Ġre ce
Ġrid ers
ak ers
Ġstair case
co vered
Ġexer c
w a
Ġs ale
ers e
Ġbe g
us es
Ġra ft
Ġsw or
Ġflo ral
Ġcustom ers
Ġtrans p
Ġsaxop hone
Ġfabr ic
Ġo wn
re m
it her
Ġguitar ist
Ġli es
ca la
Ġbel t
Ġes cala
Ġjugg ling
Ġpos ition
a b
Ġb ending
Ġc yclists
Ġto ss
Ġarm y
Ġhik er
Ġfre sh
a che
ar a
Ġj ap
Ġmo ves
ant a
Ġsa il
Ġdri ver
Ġhan gs
Ġpl ane
Ġste ep
Ġfun ny
Ġsold ier
Ġexam ining
Ġjap an
Ġt u
ro p
Ġst ares
Ġare na
Ġlo un
Ġe ither
Ġthro wn
Ġfa st
Ġthem sel
Ġshe et
Ġcre w
Ġconvers ing
Ġclose up
Ġyo uth
Ġoppos ite
Ġthemsel ves
Ġp illow
ra ck
Ġte acher
Ġpl ant
slee ve
Ġpupp y
d ium
Ġ ears
Ġch alk
Ġperform ers
Ġpat ter
Ġfore ign
Ġtr ump
Ġsum mer
Ġp in
Ġd el
Ġsho ot
Ġde f
Ġcont ro
Ġshovel ing
Ġtub e
t en
Ġ el
Ġa ut
Ġpo dium
Ġcam p
Ġbic yclists
Ġapp l
Ġbox es
Ġbre ad
ho use
f ront
h ound
p an
Ġb ill
Ġsh ade
Ġfo c
Ġne on
Ġbi king
Ġclo udy
Ġcomp le
Ġathle tic
Ġs up
Ġs anta
Ġb ent
Ġre c
Ġl unch
ct ed
shirt s
Ġri bb
Ġgr and
Ġdrum mer
Ġjersey s
Ġwr it
Ġser ving
Ġspr ink
d on
Ġt rip
Ġg l
Ġsn e
Ġflo at
Ġsurround ing
Ġsha king
Ġanim als
Ġform al
Ġfing ers
Ġcand y
Ġmust ache
Ġrob es
Ġrac et
c lo
u es
y hound
in ery
Ġe aster
one y
Ġsn ack
Ġac o
Ġpol ka
Ġjo ckey
Ġblo cks
Ġgre yhound
Ġnat ive
Ġunderw ater
Ġslee ve
Ġpajam as
Ġracet rack
Ġp orch
Ġp alm
Ġle t
Ġca u
Ġshe ep
Ġtour ists
Ġtow el
Ġcontain er
Ġaco ustic
l and
m a
m ers
Ġy ou
Ġbu cking
Ġbro om
Ġca ught
Ġmach inery
Ġbottle s
Ġsold iers
b at
e um
t ime
Ġm oney
Ġl ane
Ġla y
Ġher self
Ġsho wn
Ġfis her
Ġescala tor
g a
v is
Ġ (
Ġg es
Ġst ri
et er
Ġhe els
Ġwa gon
Ġje w
Ġus e
Ġmus eum
Ġpract ice
Ġchas es
Ġhik ers
Ġsusp ended
Ġcau cas
Ġges ture
Ġ )
Ġp ige
Ġro ut
Ġcon es
Ġhead band
Ġhair cut
Ġcom m
Ġli qu
Ġstick ing
Ġmarket place
Ġpie ces
Ġbackpack s
Ġtattoo s
Ġamus ement
Ġfir st
Ġcaucas ian
c ue
h ill
in y
Ġb in
Ġp uck
Ġc are
Ġth umb
Ġho sp
Ġback wards
Ġor der
Ġclo ud
Ġar ch
Ġfire t
Ġdri ve
Ġint erse
Ġbarbe cue
Ġcarp et
Ġmotorb ike
Ġhosp ital
Ġinterse ction
o on
Ġd ep
Ġj u
Ġba ss
te red
Ġfl ight
Ġobser ving
Ġpr int
Ġsoft ball
Ġpony tail
Ġt ight
Ġst or
Ġst yle
am p
Ġswim mer
Ġhall way
Ġtrump et
i ft
Ġt ry
Ġp iz
Ġlo ad
bo at
Ġso cks
Ġlea f
Ġbik ers
Ġhome less
Ġpad dling
Ġhapp ily
Ġmem ber
z er
Ġt ar
ro on
Ġg erman
al ler
Ġn arrow
Ġro ll
ri er
Ġma roon
ation s
ha wk
Ġbar s
je cts
Ġlaugh s
Ġrais ing
Ġindividu al
Ġtool s
Ġvis ible
Ġcolle ge
Ġfra me
Ġjapan ese
Ġw ar
Ġb un
Ġth ings
to wn
sh ion
Ġsc ub
Ġathle te
Ġparticip ating
Ġexc ited
Ġmeet ing
e ch
Ġw ild
Ġp ower
Ġm all
Ġf ly
Ġla mp
gg ed
Ġbox ing
Ġskirt s
Ġoppon ent
Ġscub a
d d
d ay
Ġpla za
st one
Ġch ick
Ġtop s
Ġhead sc
Ġben ches
Ġam id
Ġrest s
Ġpost er
Ġcelebr ating
Ġmod el
i lo
Ġm is
Ġg as
Ġdown town
Ġback s
Ġset s
Ġflow ered
Ġsnowboard ing
bor ne
Ġteenag er
Ġret ri
l ike
Ġw eat
Ġm ound
st ra
Ġta x
Ġv ac
Ġor n
Ġair borne
Ġhel ps
Ġpar ach
Ġkne els
Ġce rem
Ġairp ort
Ġadvertis ement
Ġbever age
Ġneckla ce
Ġredhead ed
Ġsne akers
Ġrout ine
y e
Ġs u
Ġp un
Ġp ump
Ġf ree
ip es
Ġspe ech
Ġfe ed
Ġcomput ers
Ġtransp ort
Ġfiret ruck
h ou
Ġth in
ion s
Ġle ading
Ġv illa
ren ch
Ġhand stand
Ġcat cher
Ġpat io
Ġspe ak
Ġcross es
Ġcarri age
Ġfirefight ers
Ġretri e
Ġa head
Ġe gg
Ġmo hawk
Ġcap s
Ġgr illing
Ġele ph
Ġsqu atting
Ġsil hou
ib ly
Ġfen ced
Ġfoc us
Ġs y
Ġbl ur
Ġsp ace
Ġstrip es
Ġgentle men
Ġrefle ctive
Ġsell s
c ess
h ood
Ġn aked
Ġbu ying
Ġmot oc
Ġbar rel
Ġelect ron
Ġpr in
Ġmotoc ross
Ġm ini
Ġc ree
Ġl ick
Ġte al
end er
ter y
Ġbasket s
Ġmotorc yclist
Ġcor n
co lored
Ġpit ch
Ġoper ating
Ġbran ch
Ġcobble stone
b oo
Ġr ink
Ġbe en
Ġgra vel
bo x
Ġne igh
Ġmar ri
Ġdis h
ty ard
Ġhan g
Ġev ening
Ġcour tyard
Ġstud ent
Ġcheer ing
Ġindo ors
Ġposs ibly
f lo
l it
Ġa ction
Ġb le
Ġb ul
Ġsp ar
ist er
Ġint era
Ġexp ress
Ġpolicem an
Ġke ep
Ġswor d
m in
Ġd im
ile r
us k
Ġfor ward
Ġche e
Ġbal ding
Ġpat ient
Ġboard walk
Ġwe lding
Ġsmo kes
Ġrepair ing
Ġmost ly
Ġbrus hing
Ġmagaz ine
es ting
il ar
il ity
Ġfo ld
Ġra cer
Ġbal ance
bor n
Ġent r
uff y
eth nic
Ġcho ir
Ġeaster n
Ġneigh bor
Ġ ethnic
Ġb ank
er by
is s
Ġd read
at ure
Ġout st
Ġsm aller
Ġma p
Ġsp inning
Ġca b
Ġbar ber
Ġsa w
Ġrain bow
Ġblow s
pt ion
Ġsim ilar
Ġpiz za
a ks
e led
Ġb iting
Ġe ight
Ġe mer
Ġor che
Ġtra y
Ġte e
Ġgo wn
Ġli br
Ġskateboard s
Ġnew born
Ġspor ting
Ġgar age
Ġt ied
ck ed
Ġe very
Ġcar ving
Ġcar ry
Ġfo lding
Ġcon du
Ġsp read
Ġcomp an
Ġatt ention
Ġcompet e
Ġite m
Ġstr ange
Ġcri cket
Ġsleeve less
Ġweat her
Ġneighbor hood
p her
v ol
Ġd ump
Ġta g
Ġso fa
Ġbr ush
Ġsing le
Ġob jects
Ġpl an
Ġhit s
Ġcol la
Ġentr ance
d a
g an
i ally
z e
Ġin stru
Ġg am
al ing
Ġsc ru
Ġcross ed
Ġmat erial
Ġjo b
Ġdispla ying
let es
Ġmed ical
Ġorche stra
Ġm uzz
is ting
is hed
ra in
Ġl ines
st ick
Ġro wing
Ġback d
Ġsk in
do wn
Ġbal let
Ġkne es
Ġstro ll
Ġhot do
Ġint ently
Ġcard s
Ġcr ane
Ġsto ve
Ġpige ons
t ub
Ġ !
Ġ if
Ġsh aped
ic a
Ġn ur
Ġcon s
Ġstud io
Ġwe a
Ġrais es
Ġgre at
Ġbath room
Ġsec ond
Ġsplas hes
Ġlibr ary
h ib
t i
t es
Ġh um
Ġst art
Ġre l
Ġro ugh
Ġhe art
Ġsk ates
ren ts
Ġbus hes
Ġli fting
Ġuniform ed
Ġmicro phones
Ġtur ned
Ġvehic les
Ġnot e
Ġamong st
Ġrub ber
Ġpassen gers
Ġsup er
Ġliqu id
k er
Ġ -
Ġt ents
Ġs ong
Ġbe an
ren ce
Ġsoc ial
Ġad m
Ġphoto s
Ġex hib
co la
Ġwheel s
Ġ2 0
Ġfruit s
Ġemp lo
Ġgun s
Ġcard board
Ġcrou ches
Ġcree k
Ġoutst ret
p a
u ro
Ġsh aring
irt h
ur ity
Ġsk ater
Ġcon fe
Ġwa ist
Ġbal ler
Ġshe pher
Ġce iling
Ġkn ife
Ġtack le
Ġcast le
Ġheadsc arf
Ġfeed ing
Ġoutstret ched
d an
Ġw ings
Ġb und
Ġb irth
Ġp ri
Ġr u
Ġr ange
Ġhand ing
Ġun icycle
Ġstop s
Ġbucket s
Ġform ation
Ġeng ine
Ġsec urity
Ġribb on
Ġtax i
Ġconfe rence
Ġt v
Ġs la
Ġs ink
Ġp ill
wn ing
Ġj et
Ġwat ched
Ġfa shion
ill s
Ġsl ight
Ġfire men
Ġattemp t
Ġstret ching
Ġemplo ye
c an
d es
i or
Ġre g
Ġlo n
Ġco ach
um n
Ġro pes
yc ling
Ġsur g
Ġdis hes
iv ely
Ġbag p
Ġlea ving
Ġstop ped
Ġphotograph s
Ġfisher man
Ġtransport ation
Ġbirth day
Ġwa ke
Ġswim mers
Ġsand w
Ġapp le
Ġstore front
sel y
Ġcup s
Ġpret ty
Ġdel i
Ġbill board
Ġjew el
Ġbackd rop
Ġshepher d
p y
Ġs ad
Ġs ides
Ġin te
Ġan ge
Ġdo ors
Ġn ail
Ġtattoo ed
Ġplat es
Ġdirection s
Ġcerem ony
Ġvilla ge
Ġeleph ant
boo k
flo ps
a red
l ish
u la
Ġw ig
Ġw ading
Ġc el
Ġh uddle
Ġdo t
op s
Ġat v
Ġr ural
Ġor gan
Ġover head
Ġben eath
Ġca se
Ġart work
Ġpus h
ctor y
Ġfall s
Ġdin ing
Ġbou quet
Ġchick en
Ġmarri ed
Ġjewel ry
s ks
u ally
w or
Ġa qu
Ġin vol
lo cks
Ġj ung
Ġpa rents
Ġatt ra
iz on
Ġphotograp hed
Ġtour ist
Ġcal led
Ġpatter ned
Ġjung le
er am
Ġd erby
ut s
am erican
Ġgroup s
Ġte ch
Ġsuit case
Ġhorse back
Ġap artment
Ġcut s
Ġbalan ces
Ġdun e
Ġelectron ic
Ġa x
Ġre ach
ur s
ad s
Ġdown hill
Ġle ar
Ġbu y
Ġtra iler
Ġte aching
Ġche cks
Ġpur ch
Ġshop s
Ġkay aking
Ġfur n
Ġchain s
Ġtele phone
Ġthumb s
Ġdread locks
Ġrel ig
z en
Ġs ack
Ġd u
Ġdo ctor
Ġl an
ap s
Ġfa ctory
Ġgather s
bb ing
Ġter rain
Ġdiscuss ion
Ġtravel ing
Ġexerc ise
e f
m at
p r
Ġa wa
Ġt ug
Ġlo om
Ġro o
Ġhe av
Ġk ite
Ġwor ld
Ġte x
Ġtri m
Ġtrain ing
Ġhill side
Ġcra fts
Ġconvers e
Ġbut ter
Ġstra ight
Ġshovel s
Ġbreak dan
Ġcal m
Ġtow er
Ġdon key
Ġfan cy
Ġdim ly
Ġcolla red
g y
t ain
Ġp ress
Ġf at
Ġn ame
Ġup on
Ġmo re
Ġbar rier
Ġfl uffy
Ġfla t
Ġpot tery
Ġath letes
Ġobser ve
Ġcrou ching
Ġslight ly
u um
w ood
Ġ &
Ġb la
is ed
Ġd uck
en se
Ġst ill
ch an
Ġpar as
Ġli ve
Ġatt ending
Ġste el
Ġpart ially
Ġfur ry
Ġlead s
Ġpet ting
Ġteamm ate
Ġtu x
Ġappl ying
Ġrelig ious
in o
at ive
Ġst ir
or ting
Ġlo ading
il ts
Ġso da
Ġsc out
lle d
Ġhor izon
Ġcand les
Ġcas ual
Ġadj ust
Ġcontro l
Ġsprink ler
Ġvac uum
Ġwake board
p ical
Ġs al
it ure
Ġf et
Ġpe e
Ġe uro
Ġpa le
Ġbro ken
Ġse ats
Ġsp oon
Ġhand le
Ġcle ans
Ġjo y
Ġsha ved
Ġhot el
Ġcla y
Ġgrind ing
vis ion
Ġcloud s
Ġfurn iture
i ving
k y
Ġg e
Ġco oks
Ġcar ts
Ġra p
Ġra ces
Ġmo bile
Ġcompet it
Ġtur ning
Ġcont est
Ġcra ft
Ġnew ly
Ġcal f
Ġcustom er
Ġdiscuss ing
Ġprotest ers
Ġble acher
l id
m ents
n o
n am
v i
Ġh ad
Ġd usk
at o
ot ard
us ting
Ġle otard
Ġcam ping
Ġche ss
Ġfl ipping
Ġrain y
Ġvend ors
Ġqu ick
Ġwrest le
Ġprot esting
Ġact iv
Ġfeat her
Ġmix ing
Ġrollerbla des
Ġgam es
Ġcel lo
Ġs lack
is le
Ġro d
Ġro ws
Ġle an
way s
as ium
Ġcoup les
Ġpat ch
Ġtr icycle
Ġnumb ers
Ġban an
Ġcla pping
Ġgymn asium
Ġeng aged
Ġadvertis ing
Ġi ron
Ġfen cing
Ġmer ch
Ġtho ugh
Ġbleacher s
b ag
Ġ 6
Ġ u
Ġ ic
Ġp ine
at ely
Ġpla cing
Ġk ilt
Ġv en
Ġcon g
Ġsnow sh
end ers
Ġcl ut
Ġde c
Ġde ad
Ġshe l
Ġfire man
Ġbat ter
Ġvar i
Ġspla sh
Ġcla d
Ġbel ly
Ġfollow s
Ġrefle ction
Ġass em
tail s
whe re
Ġolymp ics
Ġchee k
Ġsandw ich
' t
Ġc ru
Ġsh are
ic ally
Ġse ction
Ġcam eram
iz ing
Ġele v
co at
Ġtrun k
Ġstar ting
Ġgymnast ics
Ġfollow ing
Ġfin ish
Ġpaddle s
Ġbran ches
Ġinspe cting
ara ct
Ġpump k
Ġslack s
d ed
u ble
Ġo dd
Ġb ends
re am
Ġthe ater
Ġd ro
la d
or m
ut ing
Ġch ase
Ġch aract
um er
Ġv ic
Ġcon f
Ġdr ill
Ġcamera s
Ġcom e
Ġbri cks
Ġcolor ing
br ush
Ġexam ines
Ġtrash can
Ġwrit ten
Ġorn ate
h ol
t ers
Ġt ick
is ing
Ġan g
Ġh op
Ġh ind
ld o
Ġco vers
il led
Ġta pe
Ġlar ger
Ġte a
Ġsc ore
Ġfl ute
Ġnight time
Ġhu g
Ġcre ating
Ġfil ling
Ġyo ga
Ġtele vision
Ġamid st
Ġbul ldo
Ġfold ed
c c
c ross
c ade
o red
Ġ ident
Ġa im
Ġc all
Ġc age
is hing
Ġst all
ri es
Ġma ss
Ġfa ke
Ġex per
Ġhu gs
Ġcra w
Ġglo ve
Ġlist en
Ġtro pical
Ġspra ying
Ġcas ually
Ġport ra
Ġsupp ort
Ġgesture s
Ġcomm un
Ġwea ving
Ġtux ed
w ar
Ġd om
Ġst y
Ġwh is
Ġwh om
Ġta il
Ġgra du
Ġbro n
Ġclo sely
Ġfore head
we ight
Ġkis ses
Ġscen ic
Ġlaptop s
Ġfirefight er
Ġsilhou ette
Ġvari ety
i ves
v il
Ġ ump
Ġp ins
Ġd one
Ġd ive
Ġr ally
Ġch in
Ġn umer
Ġba d
Ġho uses
Ġla t
ct ors
Ġpo or
Ġcro wn
Ġma sks
Ġbri ef
Ġski ers
Ġme chan
Ġwheel b
Ġpoin t
Ġlist ens
if ic
Ġgrocer ies
Ġtire s
Ġexp lo
oc ular
Ġmom ent
Ġbin ocular
Ġeuro pe
g ed
i pp
l ies
Ġin form
Ġm ay
Ġc op
Ġsh ar
Ġpla ced
Ġla bor
Ġle cture
Ġsn iff
Ġover weight
Ġmo der
Ġsho rel
Ġopen s
Ġvie wing
lin ed
Ġim p
Ġnat ure
Ġcrou ched
Ġcare fully
Ġmis sing
Ġbean ie
Ġlon don
Ġump ire
Ġshorel ine
d ers
g en
m ark
re g
Ġg alle
Ġh un
Ġst om
Ġst are
or n
Ġpe ers
Ġl ighting
Ġch atting
Ġco aster
ot h
um ent
Ġpo urs
Ġra cers
Ġjump ed
Ġac ro
Ġag es
Ġcan v
Ġme x
Ġwheel ie
Ġcra y
Ġscen ery
Ġpractic es
Ġobser ves
Ġpupp ies
Ġcho cola
Ġrollerbla ding
Ġmess y
Ġtrip od
Ġgalle ry
c ount
t ured
Ġa v
Ġa isle
Ġs ized
Ġb it
Ġm in
ar ves
Ġf it
Ġh ut
Ġd j
Ġst ones
Ġdo ugh
Ġplay ed
Ġba k
Ġbro w
Ġbro ther
Ġse ag
Ġcam el
Ġbus h
Ġsurf s
Ġpath way
Ġtur ns
Ġcut e
Ġcirc ular
Ġparticip ate
Ġtou ches
Ġpig tails
Ġteamm ates
Ġju ice
Ġtar get
Ġlick ing
Ġskin ny
Ġrap ids
Ġven ue
Ġchocola te
b ur
h at
i et
Ġ ut
Ġt iny
Ġp ir
Ġp ood
Ġd ad
ir ing
Ġman e
ic es
Ġco ol
Ġhis pan
Ġgra bbing
Ġwor d
Ġche wing
Ġshop pers
Ġsa ying
Ġdispla ys
Ġnot es
me lon
mo st
Ġmop ed
Ġappro aching
Ġolymp ic
Ġtoss ing
Ġparach ute
Ġnumer ous
Ġseag ull
b al
f o
Ġs at
ar n
ra il
Ġre mo
Ġro lled
Ġwater melon
Ġsp ark
Ġwa res
Ġar r
Ġsun light
Ġhead dress
Ġcom es
Ġli fts
Ġmot ion
Ġind ust
Ġal most
Ġpres ents
Ġflip s
Ġbowl s
Ġcelebr ation
res ting
Ġpassen ger
Ġadj usting
Ġrollersk ating
Ġchalk board
Ġballer ina
Ġbutter f
Ġquick ly
Ġbinocular s
Ġhispan ic
c on
Ġ ill
Ġo ven
Ġb ite
it ies
ar ter
Ġy arn
ut ion
qu in
Ġbr it
Ġam er
Ġhor n
iv ers
Ġtoddler s
Ġtur ban
Ġal co
Ġexam ine
Ġhoop s
Ġlog o
Ġtile d
Ġshadow s
Ġsupp lies
Ġembra ce
Ġloun ge
Ġaut umn
Ġstor y
Ġexhib it
Ġsnowsh oes
Ġwheelb arrow
Ġmoder n
Ġcanv as
w l
Ġt om
Ġt ig
Ġt orch
Ġf le
Ġst ump
Ġto uch
Ġre cord
st yle
ur f
Ġla ss
Ġla cross
Ġpo cket
Ġse m
Ġse p
Ġma il
Ġje ep
Ġmus c
Ġen vi
Ġwind s
Ġmar ch
ak er
Ġri f
ron ment
Ġsil ly
Ġalley way
Ġshad es
Ġsweep s
Ġ20 1
Ġbagp ipes
Ġcong reg
Ġvic tor
Ġenvi ronment
f ire
x y
Ġt ut
Ġm c
Ġman ne
Ġwith in
Ġsh ield
Ġpa y
ind er
Ġsp id
Ġhand rail
Ġmo vie
Ġstrip e
Ġatt end
Ġmouth s
Ġcont ra
Ġsha kes
Ġdra wn
Ġland ing
Ġprodu cts
Ġmed ium
Ġdesc ent
Ġembra cing
Ġegg s
Ġexpress ion
Ġlear ning
Ġshar p
Ġlacross e
e ler
g u
h and
h ift
m es
p o
Ġ 8
at a
Ġre m
Ġre ar
Ġl ip
Ġch ar
Ġfro zen
Ġwor ds
Ġra ck
Ġv alle
ure s
Ġar cade
Ġcam els
Ġen clo
Ġshow er
Ġhill s
Ġmach ines
Ġconc ent
Ġpad s
Ġmakes hift
Ġear ring
Ġbra ce
Ġcr ates
Ġspot ted
ator y
Ġrollersk ates
Ġroll s
Ġcompan y
Ġhum an
Ġchains aw
Ġcameram an
Ġstom ach
b re
n et
Ġ 7
in et
id ed
Ġdo uble
op ter
ic opter
Ġl ink
Ġplay fully
Ġco t
Ġe la
ard s
im es
Ġso ap
Ġcom for
Ġmid st
Ġhel icopter
qu o
Ġac c
Ġdra g
Ġqu arter
Ġmon key
Ġchef s
com ing
Ġdust y
Ġbeg ins
don al
Ġprin ted
Ġbutterf ly
Ġalco hol
Ġmc donal
Ġvalle y
c am
d en
h op
Ġt rench
Ġw and
Ġm ount
ro us
Ġg ot
Ġf ed
Ġto oth
ic le
Ġn un
Ġho ok
um in
ri al
Ġbu ff
Ġma int
ble s
ru cks
Ġsc ream
Ġun us
Ġac com
Ġdi ves
Ġteen s
Ġhi ke
Ġcur tain
Ġser ve
Ġdecor ative
Ġbra ss
Ġswimsuit s
Ġsusp enders
Ġunderw ear
Ġwire s
Ġfar mer
Ġintera cting
stick s
Ġnote book
Ġadm iring
Ġacro bat
Ġindust rial
Ġsem i
quo ise
cam era
b ies
g irl
Ġt ights
Ġc it
Ġf el
Ġh y
un k
Ġtw irl
Ġr ice
Ġba mb
Ġco o
ad ow
Ġbu ilt
Ġv ol
Ġte xt
Ġsc ient
Ġper ched
Ġhead ed
Ġad or
Ġca sh
Ġde br
Ġboard s
Ġtur quoise
Ġbox er
Ġgi ft
Ġsqu irt
Ġnewspap ers
Ġblanket s
Ġwrest ler
Ġtro lley
Ġloc ated
Ġsto op
Ġpedestri an
Ġboun cing
Ġown er
Ġscru bs
Ġinte resting
Ġroo ft
Ġconcent r
Ġela bor
Ġbamb oo
Ġdebr is
a ke
g reen
l ines
n ey
an ges
Ġm or
Ġc her
Ġc ub
Ġbo und
Ġre sc
Ġj ud
Ġcar go
Ġma in
ation al
Ġwhe eled
Ġapp are
Ġcan ad
Ġhigh way
Ġdi ver
Ġstair way
Ġpra ying
Ġbusiness man
Ġhar ves
Ġknit ting
Ġpolicem en
Ġwrit es
Ġhotdo g
Ġtig er
h am
i kes
r at
v al
Ġp ilo
Ġg ive
at ers
Ġst ilts
Ġbe ads
Ġk im
Ġra d
Ġse le
Ġsc ra
Ġsur pr
Ġasian s
Ġmountain side
Ġbat tle
Ġcolorful ly
Ġart ists
Ġsha ggy
Ġcowbo ys
Ġapron s
Ġmon ument
Ġsled ding
Ġscoot ers
Ġcand le
Ġstret ches
Ġscaffo ld
Ġappro aches
Ġbrus hes
Ġgaz es
Ġdemonstr ation
Ġsail boat
Ġloun ging
Ġpin ata
Ġsu v
Ġemer gen
Ġange l
Ġbulldo zer
Ġportra it
Ġrooft op
Ġemergen cy
b ank
u le
Ġt ired
Ġs en
Ġw ill
it ors
Ġc ans
Ġg est
at oes
and ise
Ġch at
Ġch ina
Ġch amp
ad es
am ed
Ġv a
ng th
Ġunder ground
Ġmotor ized
Ġcross count
Ġhigh chair
Ġpass ers
Ġkn o
if ier
Ġim ages
Ġphotographer s
Ġbath tub
Ġtack led
Ġcol um
Ġfigure s
Ġfarm ers
Ġinter vie
Ġpill ar
Ġdu cks
Ġmerch andise
Ġpumpk in
Ġmex ican
Ġcontra ption
Ġcrosscount ry
c il
Ġ 9
Ġ ing
Ġ ver
Ġs ym
Ġw ife
Ġm ower
Ġpla ces
Ġat m
Ġr ick
Ġch is
el f
Ġsm oot
Ġby stand
em ade
Ġwa sh
Ġcap e
Ġfis hes
Ġcostum ed
iz e
Ġcur ve
Ġwe re
Ġhom emade
Ġent h
Ġmil k
Ġbur ning
Ġfollow ed
Ġpret ending
ab ly
clo th
Ġblur ry
Ġsurg ery
Ġattra ctive
Ġax e
Ġlan ter
Ġaccom pan
e x
r s
Ġs ear
Ġm ow
Ġc ycling
en ting
Ġto o
ot ic
Ġbe lon
Ġas ia
Ġla te
low ing
Ġha wa
Ġma sc
Ġwa re
Ġche ese
Ġjo gs
Ġwr ist
Ġstra pped
Ġworks hop
Ġdisplay ed
Ġdire ct
Ġwrest lers
Ġbur g
Ġass ist
Ġlift ed
Ġentertain ing
Ġdemonstr ating
Ġdep artment
Ġload ed
Ġpun ching
Ġheav ily
Ġbrief case
Ġpassers by
Ġhawa i
e en
m on
p ie
r id
Ġa erial
Ġs und
is es
ro mat
Ġf ind
Ġh iding
or a
Ġsh iny
Ġn av
und y
us i
bo dy
Ġside lines
Ġsnow ball
Ġsnow suit
Ġsc o
Ġgo at
Ġmo use
Ġtop less
Ġag ed
Ġboard ing
Ġtur tle
Ġbrid es
Ġpost ers
Ġtour nam
Ġcontain ing
Ġsplas hed
Ġplan ting
Ġbreakdan cing
Ġinform ation
Ġmane u
Ġlass o
Ġ201 2
Ġkim on
Ġburg undy
d r
i ents
z y
Ġa do
Ġw on
an nel
Ġb end
Ġin j
Ġin st
le as
Ġf rench
Ġsh ining
Ġdo l
ic ans
Ġre cor
Ġl ime
Ġr ings
st ro
Ġbe ret
Ġle as
Ġbi b
Ġsp an
Ġpro cess
Ġdis c
Ġcle aring
Ġstud ying
Ġsky d
ious ly
Ġbut cher
Ġnet s
Ġser ies
Ġban jo
Ġloc ation
ens ive
Ġcontain ers
Ġstret ched
Ġpack ed
Ġstring ed
Ġlaund romat
Ġslee ves
dress ed
Ġmer ry
wor ks
Ġscout s
Ġlabor atory
Ġcot ton
Ġcit iz
Ġbelon ging
Ġware house
Ġtournam ent
a ct
b by
Ġt em
Ġin ner
Ġp y
Ġg ri
om s
op es
Ġl ips
il ly
ver ing
ie f
Ġra bb
Ġle gging
Ġv ending
Ġjump er
ig ning
Ġfood s
Ġmountain ous
Ġbar ric
Ġmar ble
Ġfire works
Ġsha wl
Ġste pping
Ġstat ues
Ġent ering
Ġoffic ial
Ġpot s
Ġmon itor
Ġbever ages
Ġchop ping
Ġsnack s
Ġdrive way
Ġretrie ver
Ġmini ature
Ġcons isting
Ġadjust s
Ġgradu ation
Ġpir ate
Ġbrit ish
Ġrif le
Ġelabor ate
Ġenth usi
i pped
in ed
Ġt rucks
Ġo l
Ġp ow
Ġm it
Ġg oo
Ġpla in
Ġba y
Ġlo ve
Ġco ast
am a
Ġe m
Ġgra b
Ġor anges
Ġsome where
Ġhand ling
Ġsc rat
ph y
Ġatt ack
Ġam ount
Ġsa iling
Ġcell phones
Ġkick ed
Ġblo od
Ġste am
Ġpick s
Ġqu iet
Ġbottom s
Ġgaz ing
Ġdesign s
Ġcomple te
Ġspeak er
Ġident ical
Ġgest uring
Ġcolum ns
Ġhawai ian
Ġbrides ma
Ġlegging s
b ed
Ġo cc
Ġan ti
en ed
Ġst uck
lo r
Ġto ile
Ġl ion
Ġn ine
ile d
Ġbl ind
ad ed
Ġmen u
im ent
Ġpa c
Ġv i
Ġsk ills
Ġside ways
Ġsp ring
Ġsc ience
Ġtable cloth
Ġfa cial
Ġpro p
ag ing
Ġspe cial
Ġsqu ats
Ġser vice
Ġstar s
Ġtack ling
Ġwaters ki
Ġguard s
Ġwas hes
Ġfra med
Ġcondu ctor
Ġsuper mark
Ġsocial izing
Ġemploye e
Ġtuxed o
Ġquarter back
Ġtooth brush
Ġunus ual
Ġmor ning
Ġbystand ers
Ġbelonging s
k is
w ed
Ġ est
in is
Ġs ar
Ġs ound
Ġo vers
Ġm y
Ġm ur
Ġf er
Ġst aff
Ġth an
Ġj a
Ġba bies
Ġco ws
Ġgra bs
Ġk io
Ġover lo
em ents
Ġun lo
Ġuni vers
Ġwho se
Ġday time
Ġfl annel
Ġsa ilo
Ġme adow
Ġaud itor
Ġdecor ations
Ġty pes
Ġprodu ct
Ġproject or
Ġoper ates
Ġrepair s
Ġret ur
Ġrece ption
Ġstri ke
Ġemploye es
Ġinvol ving
Ġwhis tle
Ġbron co
Ġeurope an
Ġcray ons
Ġmanne quin
Ġpilo t
Ġsupermark et
Ġauditor ium
l im
p it
y ed
Ġa ra
Ġa ge
Ġm i
es ter
on ed
on ge
Ġsh ru
Ġth ick
Ġlo gs
Ġco ca
ot t
Ġhis tor
Ġe as
Ġle vel
Ġcon v
Ġsp onge
sh ip
Ġsc iss
Ġsc aling
Ġun h
ud s
Ġmus lim
Ġex pla
Ġmar sh
Ġmotorc yclists
Ġmark ed
Ġme as
Ġbik inis
Ġnumb ered
Ġdra gging
Ġsky line
bble s
Ġcra shing
Ġbed room
Ġstru gg
Ġhar bor
Ġelectric al
Ġter min
Ġspot light
Ġfeat uring
Ġpatter n
Ġlet ters
Ġtar p
Ġbund led
Ġpurch as
Ġbla zer
Ġpood le
Ġfel low
Ġcher ry
Ġresc ue
Ġnav ig
Ġenthusi ast
Ġara b
w ear
Ġm ug
Ġh ip
Ġd et
Ġst ain
op y
Ġpe ering
Ġr an
Ġr ust
Ġbe ers
il s
Ġe ag
Ġwater way
Ġup ward
Ġfo am
Ġsk ull
Ġyel ling
ap ped
Ġclo ck
Ġsun bat
Ġad dress
gg er
Ġflo ats
Ġus ed
Ġsa us
Ġtre at
Ġcan n
Ġkick box
Ġdig s
Ġdig ital
Ġrelax es
Ġfol i
Ġblock ing
Ġcas ting
Ġadvertis ements
Ġfest ive
Ġbooth s
Ġeye glasses
Ġgaz e
Ġmagaz ines
Ġgrind s
Ġel se
Ġjockey s
Ġblur red
Ġdump ster
Ġnur se
Ġactiv ity
Ġcharact ers
Ġill umin
Ġhy dr
Ġcanad ian
Ġrad io
Ġing red
Ġrick sh
Ġtem ple
Ġkio sk
Ġunivers ity
f ield
t ie
Ġt imes
Ġs igning
Ġh arm
or ts
Ġsh ape
and el
ra m
st rip
Ġlo ck
Ġta gs
Ġgra s
Ġra z
Ġne ed
Ġsk ies
Ġse es
Ġhand bag
ap hone
Ġsc arves
Ġhead ing
ag ue
ag ne
Ġwhe n
Ġcan al
Ġdra w
Ġcheck ed
Ġent er
ail s
Ġclown s
Ġwra p
Ġvis iting
Ġsto ck
Ġext ended
Ġaut om
Ġcamp fire
Ġgreyhound s
Ġlet ter
Ġsy n
Ġinstru ctor
Ġhotdo gs
Ġbanan as
Ġbrow sing
Ġwinds urf
Ġvictor y
Ġsurpr ised
Ġchamp agne
pie ce
Ġsciss ors
Ġunh ap
Ġtermin al
Ġfoli age
Ġhydr ant
b ing
n oon
p ants
t ion
t ender
Ġp unch
le ts
is on
ar ium
en ance
Ġdo ctors
Ġy a
Ġre ally
Ġco ck
Ġco con
il ies
Ġha ul
Ġpa uses
Ġup per
Ġfield s
Ġpic tured
ud e
Ġshe lf
Ġpat ri
Ġstore s
Ġtrain s
Ġpus hed
Ġbox ers
ca ke
Ġdra ped
Ġlin ing
Ġcas ino
Ġz one
Ġfin ishing
Ġpen cil
Ġyouth s
Ġsilhou et
Ġfocus ed
Ġaqu arium
Ġcompetit ive
Ġcommun ity
Ġav o
Ġearring s
Ġinj ured
Ġspan ish
Ġest ab
Ġoverlo oks
Ġingred ients
Ġunhap py
m ill
v ent
z ing
Ġl imb
Ġho lid
Ġbe at
Ġro ses
im ate
Ġpa ying
Ġperson s
Ġsp ons
ian s
Ġso l
Ġcrowd s
dle s
Ġuni que
Ġde er
Ġsweat ers
Ġsurf ers
Ġob sc
Ġlight ed
Ġpass ed
Ġmet ro
Ġrain coat
Ġfil ming
uff s
Ġrais e
Ġear phones
uck ing
Ġcr ate
Ġbur ied
Ġham bur
Ġcelebr ate
Ġ1 0
Ġnat ural
Ġtrans it
Ġinspe cts
Ġboun ce
Ġchop sticks
Ġspar ks
Ġpurch ase
Ġtick et
Ġseagull s
Ġtut u
Ġmcdonal d
Ġmaint enance
Ġscream ing
Ġsym bo
Ġharm on
Ġestab lish
Ġholid ay
c ar
o g
z es
Ġ ?
Ġa wning
Ġt ending
Ġs orting
an ging
al t
Ġas c
Ġas king
Ġhe ar
se at
Ġma j
em pla
Ġun f
Ġcom mer
Ġcl ar
Ġpur ses
Ġflo ck
Ġwait ress
Ġshe ets
Ġtre ad
Ġprep ared
ort ed
Ġdes ks
Ġev en
Ġind ia
Ġpainting s
Ġpaper work
Ġcont empla
Ġpra y
Ġafter noon
Ġpoin ted
Ġcigaret tes
Ġpot ato
os aur
Ġdin osaur
Ġbarefoot ed
Ġspray ed
Ġbarbe cu
Ġjumpsuit s
Ġrece iving
Ġarch ite
Ġmuzz le
Ġparas a
Ġstir ring
Ġsniff ing
Ġbuff et
Ġol ive
w h
Ġo x
Ġb or
Ġb on
Ġb ump
it ch
le nt
op o
Ġl ush
Ġth re
st em
us ed
ri ght
Ġup wards
Ġra fting
Ġfor k
Ġcro ps
Ġperson nel
Ġso uth
sh aped
Ġdr illing
Ġclimb ers
Ġmountain top
Ġbar tender
Ġtri bal
Ġapp les
Ġfla ming
Ġmark er
Ġflow ing
Ġcan y
Ġdri ven
Ġhard wood
Ġfam ilies
Ġclass ic
Ġap art
Ġbut t
Ġser ves
Ġint ense
rest ed
Ġpres enting
Ġkay aks
ous ly
Ġgolf er
Ġcheerlead er
que e
Ġspeed s
Ġfresh ly
pa ss
Ġsurg ical
Ġfat ig
Ġic y
fo ld
Ġmount ed
Ġtwirl ing
Ġsen ior
Ġdirect ly
Ġrecor ding
Ġinner tub
Ġmit t
Ġwaterski ing
Ġraz or
Ġharmon ica
h aps
k no
r it
Ġ ip
in ts
Ġt ying
Ġs ke
Ġp ipes
Ġg ig
ic ing
ut es
st ore
ot e
Ġla id
Ġra king
Ġse as
Ġsome body
Ġcon ne
Ġtra ve
Ġso on
Ġar ri
Ġper haps
Ġsur ge
Ġwait er
Ġca ution
Ġmar king
Ġri ot
Ġpol it
Ġsub urban
Ġdra ws
Ġdra gon
Ġgar ment
Ġres p
Ġphotograp hing
Ġpile s
Ġstun ts
Ġport able
Ġposs ession
Ġwarm ly
Ġbou lder
Ġbeg in
Ġshoot s
Ġsy stem
Ġfashion ed
Ġpee king
Ġbit es
Ġado lesc
Ġricksh aw
Ġestablish ment
Ġcommer cial
Ġcany on
kno wn
c ra
i k
s ized
re me
Ġp uzz
Ġm uch
er ness
Ġg al
Ġf ound
Ġh ips
Ġh ung
Ġst ay
st orm
Ġch ips
Ġla st
Ġla be
ie val
Ġback seat
Ġle ns
Ġbro ad
Ġsn ake
ap ing
Ġwork out
Ġclot hed
Ġac ting
Ġbr ing
Ġflo od
Ġus a
Ġam az
Ġfla mes
Ġbook store
Ġcont ents
Ġmem or
Ġmon k
Ġmon opo
int on
Ġstroller s
Ġmed ieval
Ġprote ction
Ġrow boat
Ġkha kis
Ġspot s
Ġdry er
Ġext reme
Ġclean er
Ġentertain s
Ġhurdle s
Ġbeg inning
Ġpillow s
Ġel mo
Ġcomple ting
Ġribb ons
Ġstri king
Ġdep ic
Ġbun ny
Ġwild erness
Ġhorizon t
Ġfet ch
Ġfeather s
Ġassem b
Ġdom in
Ġmail box
Ġver tic
Ġdol ph
Ġanti que
Ġpac ifier
Ġsailo r
Ġlabe led
Ġmonopo ly
d ish
g ress
m inton
Ġa b
Ġt ies
ing er
Ġw ield
Ġm ing
Ġg la
Ġf lee
la p
st ers
Ġj en
Ġbe ca
Ġred dish
am i
Ġas ph
Ġla v
Ġhe al
Ġv int
Ġsk aters
Ġsp lit
Ġsnow man
ap es
Ġgo ate
Ġun known
Ġbic ycling
Ġac ce
Ġpro gress
Ġca f
Ġwho le
Ġcat tle
Ġpat ron
Ġex iting
Ġwhe eler
Ġcan opy
Ġbow ler
Ġnight cl
Ġjo h
Ġforest ed
Ġcig ar
Ġear ly
bb ling
Ġbel ts
Ġstret ch
Ġz ip
Ġlow er
Ġter rier
Ġrac quet
Ġstack ed
Ġneckla ces
Ġswor ds
Ġju ggles
Ġspar ring
Ġevery one
Ġmuzz led
Ġnur ses
Ġpill ars
Ġaqu a
Ġawa iting
Ġaim ing
Ġexper iment
Ġbad minton
Ġamer ica
Ġmusc ular
Ġappare nt
Ġsmoot h
Ġbridesma ids
Ġtoile t
Ġconv ention
wh ite
Ġbeca use
Ġasph alt
Ġvint age
Ġnightcl ub
d ra
l ights
o ff
o bile
p en
r d
t ur
v ices
w as
Ġt ips
Ġs am
Ġs ling
Ġb er
Ġin c
Ġp on
Ġc ycle
Ġc ult
le y
Ġf ile
Ġf ist
Ġf rying
Ġd est
Ġis land
Ġst ate
Ġl un
ch ron
ge e
Ġn ike
Ġn amed
Ġco u
Ġle d
Ġbu st
pp er
Ġrock ing
ip ing
Ġpro pped
Ġca ve
Ġca rous
Ġhelmet ed
Ġpat ro
Ġlea st
Ġsub st
Ġpl ank
Ġcheck ers
Ġveget ation
az z
Ġland s
Ġcla us
Ġmon ks
Ġmon itors
Ġpupp et
Ġstraw ber
Ġpack age
Ġcook ie
Ġstr um
Ġmix ed
Ġcri es
Ġdun k
Ġstack s
Ġdoll s
Ġexerc ising
Ġtoss es
eter ia
Ġcondu cting
Ġtex ting
Ġhandle b
Ġclut tered
Ġelev ator
Ġmechan ical
Ġsep arate
Ġacc ident
Ġfed ora
Ġva ul
Ġsco op
Ġwon der
Ġautom obile
Ġsyn chron
Ġjen ga
Ġcaf eteria
a f
c ast
m art
m med
s ting
s ure
Ġt est
Ġs an
Ġs low
Ġc ul
is hes
Ġf ill
Ġh allow
Ġd eter
Ġst ance
Ġbo og
Ġsit ing
Ġta st
Ġta sk
Ġwater ing
Ġpa ws
Ġup hill
Ġle ague
Ġgreen ery
Ġsnow mo
Ġit al
Ġsc ales
Ġsc ott
ick er
Ġgu ide
ction s
Ġpro v
Ġpro ud
Ġcomp let
Ġam b
Ġlook ed
Ġfla sh
Ġfire place
sc ent
Ġbody suit
Ġjo g
Ġriver bank
Ġbre ast
Ġbre aking
Ġwe ap
Ġcarri er
Ġpick et
Ġear th
Ġqu est
Ġtub a
Ġgard ening
Ġgre et
Ġcountry side
Ġham mo
Ġvis or
Ġcheerle ading
Ġkayak er
Ġmix er
Ġbeam s
Ġpop s
Ġappl ies
Ġsad dle
Ġnail s
Ġsal on
Ġbanan a
Ġang ry
Ġcraw ling
Ġhun ched
Ġbak ery
Ġspid erman
Ġbrace let
Ġaccompan ied
Ġsund ress
stro ke
Ġpy ram
Ġvi br
Ġmur ky
Ġmi ami
Ġillumin ated
Ġspons ored
cra ft
Ġsubst ance
Ġhallow een
Ġboog ie
Ġscott ish
Ġcomplet ely
Ġhammo ck
b ie
c ility
j ump
p ain
t he
v y
Ġ id
Ġ xy
Ġt in
Ġs quee
Ġc iv
Ġf ul
Ġd ess
at tered
or ing
ra y
Ġbo red
Ġpe ak
ite ment
Ġwal mart
Ġe ast
Ġup set
Ġfo g
Ġcro c
Ġsw an
Ġsk im
Ġsp ike
Ġnear ly
pp y
Ġfa cility
Ġpark a
Ġroad side
Ġcap ture
Ġbat man
Ġdri bbles
Ġdes er
vel y
Ġtur key
Ġwe ight
Ġwe ird
Ġstop ping
Ġrail s
Ġste ering
Ġser ved
Ġser ious
Ġban ners
Ġcirc uit
Ġhar p
Ġbra ided
Ġtro phy
Ġvide ot
Ġ1 2
Ġinclud es
Ġfin ished
Ġwaterf ront
cas es
whe el
Ġexc itement
Ġtravel s
Ġmotorb ikes
Ġpig gy
Ġtho ught
Ġel bow
Ġbun gee
Ġorn am
Ġlick s
Ġadm ire
Ġru ins
Ġinvol ved
Ġvacuum ing
Ġcru ise
Ġlip stick
Ġenclo sed
Ġscient ist
Ġmasc ot
Ġgoo f
strip ed
Ġmaj or
Ġfatig ues
Ġheal th
Ġgoate e
Ġxy lo
c ro
in ting
Ġs ister
Ġw o
Ġb est
Ġb ell
Ġp ing
Ġp ant
le gged
ro ws
Ġan c
Ġg or
Ġf ell
Ġh us
Ġd am
Ġd ivers
Ġd andel
Ġto e
Ġy ears
Ġre leas
Ġn y
Ġlo bby
Ġro t
Ġla un
se m
Ġle ngth
Ġbu ggy
Ġbu dd
to on
Ġover pass
Ġso up
Ġcam ps
Ġhead set
ant ly
Ġche m
Ġroad way
Ġflo ors
Ġhor ns
Ġdi ap
Ġme g
Ġcra zy
Ġdist ant
Ġview er
Ġschool girl
Ġdin er
Ġdire cting
if ied
Ġfix es
Ġcoll ie
Ġspra ys
Ġeng age
Ġcano es
Ġcolle ction
Ġcolle cting
Ġwas her
Ġes c
Ġinfla ted
Ġtile s
Ġcomple x
Ġrec lin
Ġsprink lers
Ġjew ish
Ġorder ing
Ġarch way
Ġintera ct
Ġsla m
Ġtex as
Ġshel ves
Ġut ility
Ġtom atoes
Ġharves ting
Ġlanter ns
Ġcitiz ens
Ġblind fold
Ġsilhouet ted
Ġclar inet
Ġtread mill
Ġinnertub e
Ġcarous el
Ġsynchron ized
Ġpyram id
Ġciv il
Ġpiggy back
b a
b u
d ot
f low
f riend
f illed
h ist
u c
w ra
Ġ ir
Ġa band
in as
in ished
Ġt am
Ġt orn
Ġw iping
Ġp ets
Ġm ist
Ġc y
Ġc ry
Ġf i
Ġsh ack
Ġsh ines
Ġpe ach
Ġre al
Ġre vie
Ġr im
Ġn ic
Ġn ood
il ted
us ing
ke ys
bo b
Ġwor n
Ġfo ggy
Ġsk et
Ġsn ap
Ġsp in
Ġsp ins
Ġper io
Ġcity scape
Ġskateboard ers
Ġflo ur
Ġpain ter
Ġatt ent
Ġfl u
Ġbat on
Ġopen ed
Ġdri ed
Ġpol ish
Ġmat t
sc ra
Ġclothes line
Ġblo ss
Ġele ment
Ġcur ved
Ġsky scra
Ġfountain s
Ġvar ying
Ġpick up
Ġref re
Ġsculp ting
Ġincl ine
Ġtracks uit
Ġinspe ct
Ġtho se
Ġstri kes
Ġcompan ion
Ġballer inas
Ġbund le
Ġhuddle d
Ġsack s
Ġactiv ities
Ġshel ter
Ġmay be
Ġbak ed
Ġwatermelon s
po int
Ġmow ing
Ġbarric ade
Ġkickbox ing
Ġavo id
Ġpray er
tur ned
Ġsnowmo bile
Ġmeg aphone
c lad
f ast
g ear
o gra
p ong
s hes
z ard
in ation
Ġs uch
Ġw it
Ġo il
Ġp om
Ġg en
Ġst ates
Ġsh ut
Ġpe er
Ġr ush
Ġshirt ed
Ġch ange
ul ance
Ġpa rent
Ġso lo
Ġar row
ist ers
Ġsun sh
Ġsur ve
ub by
Ġpar alle
Ġwalk ed
Ġsing ers
Ġca ble
Ġshe d
Ġbar n
ne ck
Ġfe eds
ys et
Ġsha ves
Ġsweatshirt s
Ġstro lling
Ġbreak fast
Ġqu ad
Ġgrill s
Ġbra ids
Ġblock ed
Ġmicrosc opes
Ġoper ate
Ġspeed ing
Ġappro ach
Ġsaxop h
Ġnap ping
Ġhammer ing
Ġcarp ent
Ġoppon ents
Ġsup erman
Ġgl an
Ġchee ks
Ġmaterial s
Ġstroll s
Ġheav yset
Ġassem ble
Ġcharact er
Ġacrobat ic
Ġador ned
Ġkimon o
Ġleas hes
Ġeas el
Ġexpla ining
Ġsunbat hing
Ġya wning
Ġunf inished
Ġparasa iling
Ġpolit ical
Ġmemor ial
Ġjoh n
was her
Ġamb ulance
Ġwo ven
Ġanc ient
Ġnic ely
Ġperio d
Ġelement ary
c art
f ood
g ling
o lo
s on
t ies
Ġa ward
in er
Ġw ool
Ġp low
Ġm es
Ġm ime
Ġf uzz
Ġh usk
and om
Ġbo ws
ic ature
Ġre na
Ġl ie
st on
Ġj am
Ġj azz
Ġba ggy
Ġro se
Ġcar icature
Ġpo sed
Ġra g
Ġfor t
Ġrid den
ly wood
Ġhand ed
Ġhand les
ig an
Ġdan ger
Ġph ones
Ġwalk er
umb er
pe ct
Ġbar ren
Ġsl icing
Ġprep ar
Ġmat s
vel in
ca kes
Ġfil med
Ġvo c
Ġmed it
Ġyo ur
Ġwra pping
Ġcook ies
Ġcol umn
com e
Ġrollerbla der
whe eled
ang ed
Ġdesc ending
Ġcamp us
Ġgl iding
Ġfisher men
Ġpatient ly
iss ance
Ġsimilar ly
Ġtrim ming
Ġfet ching
Ġdro pping
Ġmass ive
Ġcraw ls
Ġfle x
Ġskyd iving
Ġocc up
Ġja velin
Ġunlo ading
Ġcann on
Ġthre w
Ġip od
Ġconne cted
Ġsoon ers
Ġvertic al
Ġhandleb ars
Ġful ly
Ġparalle l
Ġrena issance
e ing
e er
m it
v ation
Ġt ul
Ġt ends
Ġs ight
Ġo k
Ġo ur
he ld
Ġan n
Ġd rying
id ated
Ġre ve
Ġl im
ch ief
Ġr us
Ġr andom
Ġco ke
Ġgro wn
ce pt
Ġgra ph
bo ur
Ġpo ke
Ġfor ms
Ġle ss
Ġsn ork
Ġhand held
Ġso il
Ġsc attered
Ġoff ering
Ġwork men
Ġmo on
Ġgu ests
Ġpar ts
Ġam p
Ġsweat pants
Ġbar king
Ġex ca
Ġsa wing
Ġlad ders
Ġbrid al
Ġwe ld
Ġequ estri
Ġrail way
Ġchas ed
Ġpick er
if ying
Ġpart ner
Ġty ping
Ġcover alls
Ġeng lish
Ġsea food
Ġparticip ants
Ġstring s
Ġlead er
Ġcri b
Ġrob ot
ident ial
Ġdemonstr ates
Ġleaf y
Ġchick ens
Ġsu ite
Ġfocus ing
Ġcab in
Ġtech nic
Ġpress ure
Ġstir s
Ġclut ching
Ġelev ated
Ġexplo ring
Ġamer icans
Ġcoo ler
ham mer
Ġmaneu ver
Ġsaus ages
Ġbarbecu ing
Ġdeser ted
Ġhus band
Ġcamps ite
Ġaband oned
Ġfuzz y
Ġprepar ation
a i
b ull
d ie
o la
r is
v or
w hat
Ġa board
Ġt or
Ġt ed
Ġs elf
Ġw re
Ġw el
he ar
Ġin line
Ġm ill
Ġc ling
Ġg on
Ġd rop
om a
om e
Ġto es
Ġto ast
Ġdo ts
Ġch ubby
Ġj ar
um m
Ġsm art
Ġhe ight
bo ats
Ġdress ing
Ġback stroke
Ġup right
Ġse g
Ġover coat
Ġsome what
Ġhead gear
Ġbus es
as ting
Ġli k
Ġche ws
Ġbr and
Ġflo ppy
Ġund ers
Ġcat s
Ġfla me
Ġits elf
Ġdi lap
iz es
Ġele g
Ġgi fts
Ġsha ve
Ġcur rent
Ġfil m
Ġcheck out
Ġcla p
Ġrela y
Ġviolin s
Ġleg os
Ġscreen s
ho e
Ġcelebr ates
Ġhoop ing
Ġpack ages
Ġhal ter
Ġmag n
Ġz om
Ġmult i
Ġharness es
Ġsim ult
fa shion
Ġpige on
Ġthin king
Ġretrie ving
Ġprin cess
Ġdish washer
Ġreg ister
Ġtech n
Ġenclo sure
Ġinst all
Ġrabb its
Ġmeas uring
Ġstrugg ling
Ġmarking s
Ġflee ce
Ġacce p
Ġvibr ant
Ġxylo phone
Ġmatt ress
Ġtul ips
Ġequestri an
Ġdilap idated
Ġsimult ane
a h
g lass
s w
u ce
y o
Ġs ucking
Ġw i
Ġw ades
Ġw icker
Ġm ule
Ġc ush
Ġg a
Ġf id
Ġh und
Ġd yed
al let
un te
et ti
id er
all ic
Ġr it
st ed
Ġj an
Ġwhite board
Ġk ore
se en
Ġcar toon
red s
Ġv eter
Ġse eds
Ġover look
Ġsp ir
Ġfa vor
Ġun ison
Ġun seen
Ġgu iding
Ġhel ped
Ġbase ment
Ġwind bre
Ġshe er
Ġspe c
Ġwhe at
Ġtrain er
Ġdri bbling
Ġsub mer
Ġpl ush
Ġsnowboard s
Ġfil ms
Ġcra ck
Ġblow er
Ġstra p
Ġpad ded
Ġpit ching
Ġhapp ening
Ġped als
Ġform ally
Ġrailing s
Ġmon ster
Ġseem ing
Ġrefle cting
Ġmag ic
Ġpan el
Ġsum o
ang u
Ġboun cy
Ġtu gging
Ġstor m
Ġexcited ly
Ġcerem on
Ġevery where
Ġpri est
Ġconf etti
Ġcommun ic
Ġremo ving
Ġfle a
Ġspid er
Ġattend ant
Ġvol unte
Ġchis el
Ġsear ching
Ġpow der
Ġscrat ching
Ġpurchas ing
Ġstock ings
Ġcocon ut
Ġadolesc ent
Ġapparent ly
Ġcult ural
Ġtam bour
Ġted dy
Ġlik ely
fashion ed
0 0
b ell
b ably
g n
m ade
m uffs
t ling
u ra
w om
Ġ ur
Ġt ip
Ġs ipping
Ġs amp
Ġp ans
Ġm ick
le n
ro pe
Ġan ticip
Ġon coming
Ġd iv
es us
Ġto t
op ard
Ġre hear
Ġth ing
Ġj esus
Ġn ational
Ġsit u
Ġba king
ver n
Ġro ping
ri ers
Ġta p
Ġup s
Ġfor ming
Ġle opard
Ġse ating
ap p
Ġso lid
Ġte aches
Ġsc ale
ves t
Ġthem ed
Ġpro per
Ġpro bably
Ġche ers
Ġkid die
Ġarm ed
Ġam ish
Ġde vices
Ġcat hed
Ġtri o
Ġex otic
iv en
Ġdri vers
Ġve il
Ġbear s
Ġkit es
Ġmet allic
Ġhi kes
Ġbre at
Ġsha ke
Ġdra in
Ġwe eds
Ġconc ession
Ġwin ning
Ġsqu ad
Ġdist ric
Ġres idential
os ed
Ġear muffs
Ġcirc us
Ġsled s
Ġpr ide
Ġshad ed
Ġcr ut
Ġbalan ced
Ġ1 3
Ġsto cking
Ġz oo
Ġwetsuit s
Ġmop ping
whe eler
Ġpeace ful
Ġcontro ls
Ġfloat ies
Ġstor age
Ġwar ming
Ġpun k
Ġdeli very
wor king
Ġnewly wed
Ġu k
Ġtuxed os
Ġpocket s
Ġsep ar
Ġrem ote
Ġcash ier
Ġwrist band
Ġsar i
Ġsponge bob
Ġrust y
Ġeag er
Ġflood ed
Ġdolph in
Ġpatron s
Ġvoc al
Ġsimultane ously
Ġfavor ite
Ġcathed ral
Ġdistric t
c apped
f l
f ir
m other
s m
w al
w ell
Ġ :
Ġ que
Ġt elling
Ġm ad
Ġan k
Ġto ok
and ex
Ġdo zen
Ġre cl
Ġpeople s
Ġl umber
Ġch ore
Ġlo ll
ot ion
Ġloo se
Ġdown ward
Ġsom bre
Ġcar ved
Ġbu ck
Ġhat e
Ġsnow storm
Ġsnow capped
xt ure
Ġclo ses
Ġar ray
Ġgo ats
Ġsun hat
Ġwood land
Ġhel lo
Ġdark ened
Ġtan ned
Ġsign al
Ġwind ing
Ġshe ll
Ġcap tured
Ġex it
Ġdis ney
Ġflow ery
Ġgr ins
Ġbes ides
Ġlad en
Ġcor rid
Ġcompet es
Ġcre st
Ġcre ate
Ġcre ates
Ġele ven
we ed
Ġcont in
Ġbre ath
Ġcur ling
emp or
Ġwe ights
Ġcarri ed
Ġint ric
Ġmil ling
Ġpaint brush
Ġcontain s
Ġ1 1
Ġprof ess
Ġslo t
Ġsculpture s
Ġkind s
Ġpret ends
Ġcook ed
Ġpair s
Ġround s
Ġfeat ures
Ġext rem
Ġcast s
Ġrub ble
Ġmess age
Ġdesign ed
Ġrece ives
Ġexerc ises
Ġsail boats
Ġdef ender
Ġrec re
Ġgrand mother
Ġliqu or
Ġbarrel s
Ġelectron ics
Ġcab inet
Ġmuzz les
Ġwakeboard ing
Ġcompetit ors
Ġhop ping
Ġarr ange
Ġarr anged
Ġsees aw
Ġhaul ing
Ġarchite cture
Ġbutt ons
Ġseas on
Ġpuzz le
Ġdepic ting
Ġdomin oes
Ġdest ination
Ġstrawber ry
Ġdess ert
sem ble
Ġcy l
Ġhund reds
Ġrit ual
Ġjan itor
Ġceremon ial
Ġloll ip
Ġsombre ro
Ġextrem ely
h irt
w are
w rit
Ġ ult
Ġs ure
Ġb ong
Ġp uffy
Ġm u
Ġm el
Ġc em
ro wn
Ġan y
ar at
Ġg iven
Ġon es
Ġh ides
Ġd ent
Ġd ental
en ger
at ula
Ġsh ing
Ġtw ent
Ġl angu
Ġr ig
Ġch ip
Ġba le
Ġlo st
Ġbe ating
Ġhe ro
Ġta lent
bo y
Ġback ward
Ġra fts
Ġle gged
Ġover cast
Ġsome ones
Ġcon d
Ġsp andex
Ġsp atula
Ġtra vers
Ġsc ant
Ġmo ss
Ġun it
te en
Ġcom bat
Ġli ber
ant ic
Ġthem e
Ġpro c
Ġca use
Ġconstru cting
Ġsa sh
Ġsa lad
Ġsurround ings
Ġart ific
Ġcompet itor
cor n
Ġvie ws
Ġrain ing
Ġcra sh
Ġview ed
Ġsil k
Ġste ad
Ġpot atoes
Ġbusiness men
Ġped al
Ġtro mb
Ġviolin ist
Ġtow ed
Ġcard igan
Ġprote ct
ho le
Ġpier cing
Ġda ily
Ġass isting
Ġtack les
Ġpret z
Ġtong s
Ġfeat hered
Ġdon keys
Ġwheelchair s
Ġrub s
Ġmess enger
Ġpop corn
Ġbill i
Ġcarpet ed
Ġtight rope
Ġheadsc arves
Ġeleph ants
Ġexhib ition
Ġbagp ipe
Ġawa it
Ġpee ks
Ġge ese
Ġtick ets
Ġbron ze
Ġcongreg ate
Ġalcohol ic
Ġconcentr ating
Ġcub icle
Ġarab ic
Ġletter ing
Ġobsc ured
Ġhambur gers
Ġbor der
Ġtrave lers
Ġgal lo
Ġhorizont al
Ġlav ender
dra wn
Ġdeter min
Ġgoof y
Ġdiap er
Ġreclin ing
Ġsunsh ine
Ġgraph ic
Ġpoke mon
Ġtechnic ian
Ġgon do
Ġkore an
Ġwindbre aker
Ġsubmer ged
wom an
fir st
Ġcorrid or
Ġult imate
Ġscant ily
Ġliber ty
b ra
g un
i que
l its
w ling
y ond
Ġ ends
Ġa id
Ġs orts
Ġs isters
an ting
an ke
Ġp ear
Ġp am
Ġp inned
is k
Ġan sw
Ġg um
Ġg ay
Ġh illy
Ġis ra
Ġto pped
Ġdo c
Ġtw in
Ġbo ston
Ġy anke
Ġplay pen
ch ange
Ġr ising
wn s
st al
Ġba ge
Ġho les
Ġgirl friend
Ġfro lic
Ġbe yond
ce ment
Ġstre wn
Ġla unch
ve y
Ġk et
Ġra ke
Ġle mon
Ġbu d
Ġbu g
Ġv ast
Ġma c
Ġsp i
Ġsp lits
Ġtra ys
Ġhand ic
Ġwa ff
sh ore
Ġclo sing
Ġun ident
Ġun ited
Ġun wra
Ġhead first
Ġguitar ists
Ġdan gling
Ġph ys
gg ers
Ġpro ced
Ġswim wear
Ġbase man
Ġex its
Ġmar ina
Ġapp arat
Ġag ility
Ġdis co
Ġob ama
Ġbat tling
Ġpast ries
Ġpass ion
Ġski pping
Ġbear ing
Ġbow tie
Ġjo gger
Ġpl u
Ġbet ter
Ġwr ite
Ġste er
Ġglo ved
Ġstra ps
Ġpit bull
Ġres ort
Ġcla s
Ġear b
Ġdock ed
Ġdire cts
Ġonlook er
Ġmask ed
Ġtub es
Ġcal i
Ġsmo ck
Ġshad y
Ġprot ester
Ġartist ic
Ġeng aging
ho op
Ġslo pes
Ġoper ation
Ġpret end
Ġround ing
Ġwine glasses
ang le
Ġcobble d
Ġpop ping
Ġposition ed
Ġdel ic
Ġrec ently
Ġcomm ut
Ġwar ri
Ġpower point
Ġvac ation
Ġkeep s
Ġkeep ing
Ġemer ges
Ġgown s
pa ved
Ġru gs
Ġsla b
Ġinte rested
Ġdot ted
Ġawa its
Ġwakeboard er
Ġconf used
Ġang le
Ġsniff s
Ġimp ort
Ġtom ato
Ġrecord s
Ġlanter n
Ġkimon os
Ġgri ma
Ġfer ry
Ġstain ed
Ġpatri otic
Ġsymbo ls
Ġbring ing
Ġwield ing
Ġpon ch
Ġcul ture
Ġital ian
Ġquest ion
Ġbudd hist
Ġnood les
Ġpom p
Ġcush ion
Ġmick ey
Ġcrut ches
empor ary
Ġprofess or
Ġartific ial
a ction
e re
e bra
l an
l ift
n d
s ion
t im
Ġs in
Ġs alm
Ġo ll
re es
Ġp oun
Ġc inder
is m
Ġg ain
Ġg inger
Ġf ut
Ġh on
Ġd art
Ġd itch
om ing
or y
et ery
Ġtw ister
Ġbo wing
Ġy ear
Ġr ather
Ġr ustic
Ġr ises
Ġn er
Ġlo af
el ler
Ġfro wning
Ġsm elling
Ġha ired
Ġta gged
Ġk ilts
Ġpa il
Ġpa vil
Ġpo king
Ġv ase
Ġma ster
ble m
Ġbrown ish
Ġcon dition
Ġcon vey
Ġso lder
Ġsc ope
ick ing
Ġoff ers
Ġper cuss
Ġwork man
ff y
Ġun ion
Ġli ves
Ġac cess
Ġad v
Ġad vent
Ġche w
umb ling
Ġpur s
Ġclimb ed
Ġarm or
Ġen semble
Ġca bles
ag le
Ġcap ri
Ġcap tain
Ġex change
Ġsa les
Ġmar i
ort ment
Ġbat s
Ġfr ance
Ġkit ty
Ġkit ten
sc ope
Ġkne el
Ġafr icans
Ġsnowboard ers
Ġey ed
Ġhi pp
Ġcur ious
Ġstra d
Ġal ike
Ġstru ggles
Ġkn ow
Ġpile d
Ġbra z
Ġtro us
Ġsurfboard s
Ġcoll ide
Ġcover ings
Ġstar ts
Ġstar ring
Ġtow els
Ġgymnast ic
Ġsea shore
Ġstream ers
Ġparticip ates
Ġprof ile
Ġass ortment
Ġfight ers
Ġwaters k
Ġcent ral
Ġz ebra
Ġwashing ton
Ġguard ing
Ġpan cake
Ġact ors
Ġdon ations
Ġext ra
Ġext ends
Ġappear ing
Ġdun es
Ġdun king
Ġknit ted
Ġrub bing
Ġjugg ler
Ġinter ior
Ġamus ed
Ġembra ces
Ġloun ges
Ġdef ensive
Ġtight ly
Ġparach uting
Ġvilla gers
Ġscru ffy
ker chief
Ġwig s
Ġorgan ized
Ġattra ction
Ġtricycle s
Ġpumpk ins
Ġsty led
Ġlat in
ipp ers
Ġimp ro
Ġmin iv
Ġpood les
Ġspark lers
Ġshield ing
Ġhook ed
Ġador able
Ġjud ges
Ġappare l
Ġturtle neck
Ġleas hed
Ġsar is
Ġovers ized
Ġhistor ic
Ġaddress es
Ġgras ping
Ġcontempla ting
Ġsurge ons
Ġassemb ling
Ġpatro l
Ġpops icle
Ġblindfold ed
Ġcry stal
Ġflu ore
Ġsaxoph ones
Ġassemble d
Ġhusk y
Ġdanger ous
Ġwel come
Ġeleg ant
Ġmagn ifying
Ġseeming ly
Ġbreat hing
Ġank le
Ġcem etery
Ġpam ph
Ġisra el
Ġapparat us
Ġimport ant
Ġsalm on
Ġpercuss ion
c irc
f ive
h oma
n der
o dy
t and
Ġa wk
Ġt end
Ġt esting
Ġw ro
Ġin coming
Ġm allet
ro t
ro ning
Ġan vil
Ġg rip
Ġf ier
Ġh id
Ġd ut
Ġd ue
Ġd ug
Ġd alm
la homa
un a
or ter
Ġto te
id ge
Ġsh apes
Ġdo ber
Ġre tail
up e
up s
Ġplay house
Ġth read
Ġch aps
Ġba s
Ġba ker
Ġho l
Ġco la
Ġbe ans
Ġbe agle
ve lo
Ġk a
ach i
Ġback hoe
Ġfo lder
Ġra w
Ġsk ill
Ġlit tered
Ġrid ge
Ġma che
Ġma ker
Ġor ders
Ġover turned
Ġsp o
ain t
Ġhand kerchief
Ġso ars
Ġso aking
Ġso aked
Ġar ched
Ġsc ri
Ġsc ary
Ġsc ared
ist a
ist ed
Ġoff er
Ġgo ers
Ġmo s
Ġhair y
Ġhair net
Ġcl ip
Ġcl ust
Ġfour th
Ġpre gn
Ġpro m
Ġsuit cases
Ġen er
Ġex e
Ġex cept
Ġdis k
str ide
Ġri pped
Ġcle r
ron ts
Ġind ex
Ġjo in
Ġstair well
Ġno ses
Ġdra mat
Ġstud ies
Ġshou ld
Ġsqu at
Ġcra b
Ġgraffiti ed
arm ac
Ġpot ted
Ġkn ives
Ġcla use
Ġcut off
Ġpart ly
Ġshot s
Ġsled ge
Ġstar bu
Ġmeat s
Ġsea weed
Ġi roning
Ġass orted
Ġz o
Ġseat tle
Ġkayak ers
Ġcloth s
Ġfra mes
Ġspeed o
Ġwine glass
Ġmix es
ang ular
Ġpen gu
Ġfir ing
Ġtransp orting
Ġfoc uses
Ġbroom s
Ġparach utes
Ġdeli vering
Ġange ls
Ġroo ster
Ġmechan ic
Ġtut us
Ġbound s
Ġjud ge
Ġsele ction
Ġchis eling
Ġrabb it
ester n
Ġshru b
Ġnavig ates
Ġeag le
Ġcock pit
Ġsol itary
Ġsymbo l
Ġske let
Ġslow ly
Ġweap on
Ġskim py
Ġdandel ion
Ġesc ape
flow ers
Ġmes h
Ġmedit ating
Ġok lahoma
Ġweld s
Ġcurrent ly
Ġaccep ting
Ġsamp les
Ġrecl ines
Ġintric ate
Ġlangu age
Ġgondo la
Ġket tle
Ġearb uds
Ġconvey or
Ġbraz il
Ġfluore scent
Ġawk ward
Ġpregn ant
Ġstarbu cks
b en
b lo
c are
g ame
h igh
j a
m ic
n ie
n ia
o rous
o scope
u ed
Ġa er
Ġa irl
Ġt et
Ġt ilted
Ġs ed
Ġw iz
Ġo ar
he t
Ġin se
Ġp leas
Ġm oo
le ase
Ġan ch
Ġg low
Ġh uts
Ġsh it
ra ce
ss tand
ic o
ers a
st ep
Ġch ic
Ġch allen
Ġch anging
Ġj ug
Ġj ets
Ġyoung sters
Ġlo ud
Ġblack sm
Ġco b
Ġbe e
Ġbe aded
il let
Ġro man
ri mmed
Ġas h
Ġas ide
Ġla mb
Ġher d
ke ep
Ġgra in
Ġpo kes
Ġpo ker
Ġpo ised
Ġra v
Ġfor d
Ġle is
Ġbu ys
Ġsw amp
Ġv el
Ġv ine
for d
for nia
Ġbro ch
Ġsn aps
Ġover h
Ġcon ven
Ġcon vert
Ġsp ending
Ġsnow bank
ig ator
sh ot
Ġar cher
Ġwalk ers
qu ins
Ġdark er
ale r
Ġbar riers
ag o
ey ed
Ġfl ipped
Ġex ha
Ġtre k
Ġpast ry
Ġgr in
Ġgr inning
pla y
ny rd
Ġcow girl
Ġcart wheel
Ġmet er
Ġtur b
Ġcont act
Ġpul ley
Ġwe igh
Ġwe lder
Ġnew sstand
Ġbottle d
de ep
Ġent ry
Ġstro ng
Ġgar ments
Ġpres er
Ġmother s
Ġstructure s
Ġban ks
Ġcirc les
Ġqu art
cl imb
Ġtro t
Ġswe et
Ġbur gers
Ġ1 9
Ġwas hed
Ġcanoe ing
Ġdrawing s
Ġprofession als
Ġobstac les
Ġdem ol
Ġdun ks
Ġmop s
Ġposs ible
Ġfinger n
Ġentertain ment
Ġstool s
Ġke ys
Ġdesc end
Ġpop ula
Ġown ers
ara o
Ġgl ider
Ġlamp s
Ġexpress ions
Ġemer ging
Ġinstru ctions
Ġsuper vis
Ġreg ion
Ġlan es
Ġleotard s
Ġaim s
Ġbrother s
Ġmcdonal ds
Ġmasc ara
Ġcitiz en
Ġstrugg le
Ġlimb s
Ġhambur ger
Ġasc ending
Ġresp on
Ġming le
Ġstrum ming
Ġvaul ting
Ġproud ly
Ġgreet ing
pain ted
Ġdam aged
Ġschoolgirl s
ba gs
Ġrefre sh
Ġoccup ied
Ġexca v
Ġseg way
Ġunders hirt
Ġzom bie
Ġwi i
Ġrehear sing
Ġvocal ist
Ġdent ist
Ġbilli ards
Ġdetermin ed
Ġcali fornia
Ġpavil ion
Ġminiv an
Ġexe cut
Ġchallen ge
Ġblacksm ith
a id
a ss
b l
c le
g as
i en
i ver
o wn
p ipe
t hing
t ation
w eds
x im
Ġ era
Ġa lo
Ġa ctive
Ġt i
Ġt ink
Ġs ights
Ġs ips
Ġw ade
Ġw estern
Ġo ars
Ġb ins
Ġb inder
he re
Ġm ight
ro be
ar ts
Ġg y
Ġg ap
Ġg lowing
Ġd ye
Ġman ip
Ġman ual
Ġis le
om ot
Ġst eth
Ġsh ined
Ġbo ut
Ġpe a
Ġl id
Ġj unk
Ġn on
Ġn ude
Ġba les
Ġba gg
Ġba ses
Ġlo cked
ot ch
Ġwal let
Ġbe aker
Ġro m
ri ed
Ġgra ying
Ġra pp
Ġra kes
Ġbu cked
Ġcro che
Ġgreen house
Ġsk illet
Ġse xy
lon s
Ġcon so
ain ing
Ġsho uting
Ġrock et
Ġgu ides
Ġwood working
Ġpro je
Ġroad work
Ġflo tation
Ġmus h
Ġstrip s
Ġatt aching
Ġfoot br
Ġgat es
Ġsa ve
Ġsa una
Ġsl ung
Ġall igator
Ġsle igh
ty pe
Ġpass age
Ġpass erby
Ġmat ure
Ġcell ular
sc otch
Ġbook bag
Ġdi ag
Ġjo ggers
Ġmet rop
Ġbackpack er
Ġdrum sticks
ac ts
Ġshoes h
Ġwe b
Ġsqu inting
Ġcra fting
Ġstop light
Ġbeaut y
Ġblow tor
Ġramp s
Ġent ire
Ġnot hing
Ġres ear
Ġbull s
Ġban quet
Ġpost s
Ġqu ilt
Ġdecor ating
Ġfol k
Ġlife gu
Ġloc omot
cu red
Ġham mers
Ġvis itors
Ġproject ed
Ġfight er
Ġfair y
Ġtelesc opes
Ġsee ing
Ġext er
Ġext ending
Ġharness ed
Ġdoll house
Ġdesc ends
Ġchop s
Ġrece ive
Ġtoss ed
Ġsail s
Ġdef ense
Ġtax is
Ġpun ches
Ġretrie ves
Ġ20 0
Ġtech no
Ġbreakdan cer
Ġpress es
Ġparas ol
Ġnewly weds
Ġmerch ant
Ġdro ps
Ġhop scotch
ipp er
fo am
Ġshield s
Ġbrace lets
Ġsele cting
Ġsmoot hing
Ġocc ur
Ġretur n
Ġshru bs
Ġhistor ical
Ġaddress ing
Ġsurge on
Ġtast e
Ġadmire s
Ġir ish
Ġrim med
Ġcarpent er
Ġreve aling
Ġinstall ing
Ġtambour ine
Ġlollip op
Ġpretz els
Ġunident ified
Ġproced ure
Ġtrous ers
Ġdober man
Ġclip board
Ġskelet on
Ġchic ago
keep er
Ġconven ience
Ġconvert ible
Ġexha ust
bl ue
Ġmanip ula
Ġmetrop ol
Ġblowtor ch
b aller
d ies
f ather
h y
i ors
t ors
u ish
v et
Ġ $
Ġa gg
Ġa ffe
Ġt ell
Ġs ip
Ġw aring
Ġw anting
Ġb ree
re r
re al
Ġp al
Ġc oun
Ġf oo
Ġon ce
Ġd ren
Ġd ip
Ġd ivid
om as
Ġst udy
or d
Ġsh r
and a
ic les
Ġpe aks
Ġre ct
Ġre qu
Ġl la
Ġn in
Ġn int
Ġsit es
Ġco s
Ġgro wing
Ġgro wling
Ġro ot
Ġsom ersa
ress ed
Ġwater craft
Ġpa w
Ġpa ge
Ġpa use
Ġwor ship
Ġpo ur
tle d
Ġfor ce
Ġv ess
Ġv iet
Ġse al
Ġse ws
Ġse cured
Ġperson al
Ġsp out
ain s
Ġso ur
Ġsc oring
Ġper fe
Ġwork ben
Ġdr unk
end o
Ġph armac
Ġca kes
Ġde ere
Ġsweat y
Ġconstru cted
Ġaf ro
Ġgat ed
Ġsa fe
Ġmar ches
Ġsl ip
Ġsle nder
Ġcan ned
Ġpast el
Ġrestaur ants
ol f
Ġmat ches
Ġdi am
Ġkitchen aid
Ġcor d
ac ent
Ġ2 5
Ġclass ical
Ġsqu ares
Ġdist ra
Ġaud io
Ġste al
ber y
Ġstation ary
Ġ3 0
Ġfun ction
Ġland ed
Ġland sc
Ġdin ers
Ġdecor ation
Ġpart ying
Ġtro ops
Ġrep res
Ġvis it
Ġparticip ant
Ġtun ic
Ġmultico lor
Ġfen cers
Ġwindows ill
Ġbooks he
Ġfin ishes
Ġeye b
Ġdon uts
Ġspr ints
Ġpet als
Ġadj acent
Ġinter n
Ġboun ces
Ġchop py
Ġwar ning
Ġwea ves
Ġru ss
Ġtrim med
Ġsal uting
Ġlean ed
Ġic ed
Ġodd ly
Ġsupport ed
Ġcrown s
Ġpir ates
Ġsat che
Ġcongreg ating
hand ed
Ġsquirt ing
Ġconcentr ates
Ġem otion
Ġscrat ches
Ġenthusiast ic
Ġenthusiast ically
Ġsaus age
Ġwindsurf er
Ġcocon uts
Ġbon fire
Ġarri ve
Ġassemb ly
Ġsam ple
Ġcou ld
Ġflash light
Ġsquee zing
Ġgor illa
Ġrevie wing
Ġattent ively
Ġskyscra pers
Ġgen er
olo g
Ġann oun
Ġlim o
Ġtor ches
umm y
Ġdiv erse
Ġeager ly
Ġshing les
Ġproc ession
Ġtromb one
Ġhandic apped
Ġmari achi
Ġwatersk ier
Ġhid den
Ġshrub bery
Ġwiz ard
Ġsteth oscope
Ġmush room
Ġfootbr idge
Ġshoesh ine
Ġexter ior
Ġtechno lo
Ġworkben ch
c is
c ier
c cas
d ges
e k
e aster
e eing
g les
i j
j ack
r ation
w ater
Ġ king
Ġt ide
Ġt emporary
Ġs ush
Ġs uds
Ġw ok
re ading
Ġin vest
it an
it ation
Ġm p
le ngth
is er
ro foam
Ġf ills
Ġh ig
Ġd il
Ġd uff
Ġd orm
at ic
om et
or ies
on ies
ear ing
ed ing
Ġbo ating
Ġy et
Ġpla c
Ġl y
Ġl inger
Ġn uts
Ġlo vers
Ġlo vely
Ġho vering
Ġco lon
Ġfro g
um e
um ably
Ġbe gging
Ġout field
Ġout cro
Ġe ver
Ġsm ok
Ġta sks
Ġgra ce
Ġgra ve
Ġk en
Ġback lit
Ġfor rest
Ġne at
Ġcro quet
Ġv ers
Ġlit ter
Ġrid ding
Ġse x
Ġsp ik
Ġtra m
Ġhand ful
Ġhand made
Ġso le
pp ers
Ġsc re
Ġcam per
Ġwork ed
Ġgo vern
dle d
Ġair craft
Ġperform ed
Ġrock er
Ġtal ler
ud dling
as hes
qu es
Ġli zard
Ġcomp letes
Ġatt ired
Ġfoot baller
Ġde aler
pe ctive
Ġday light
Ġtri be
Ġspe akers
Ġcap t
Ġapp la
Ġfis ts
Ġdis p
Ġsl ices
Ġfire s
Ġbat ting
Ġfore front
Ġlight house
sc reen
Ġind ic
Ġcow ork
Ġjo bs
Ġcor p
Ġcor ds
od ile
Ġblo wn
we red
co ck
Ġno vel
Ġcur led
Ġdra gs
Ġlap s
Ġhom es
Ġsqu ir
de red
Ġce real
Ġcup cakes
Ġhome work
Ġal b
Ġban gs
Ġcut out
Ġped aling
Ġbare ly
Ġqu ite
uck ed
Ġput t
Ġrelax ed
Ġfol ks
Ġrep orter
Ġcr us
Ġmed als
Ġprote cting
Ġmirro red
Ġtype writ
Ġprofession ally
Ġemb ro
Ġmust ard
Ġbalc onies
Ġport ion
Ġchest ed
Ġrefe rees
Ġstack ing
Ġsupp orting
Ġnap s
Ġpig s
Ġbou lders
Ġdoll ar
Ġdesc ri
Ġpajam a
Ġdef ending
Ġdef enders
Ġgrand father
Ġgl ides
Ġleaf less
Ġretrie ve
Ġmarri age
Ġinstru cting
Ġgam b
Ġsandw ic
ato wn
Ġdec ide
Ġsty rofoam
Ġchin atown
Ġcray on
Ġmanne quins
Ġcurtain s
Ġsquirt ed
Ġmain ly
Ġkno ck
Ġintervie wed
Ġlate x
Ġquiet ly
Ġpurchas es
Ġstain less
Ġgaze bo
Ġwindsurf ing
Ġpatri ck
Ġhear ts
Ġmitt ens
Ġgla cier
Ġcroc odile
Ġcapture s
Ġglan cing
wal ks
Ġbong o
Ġones ie
Ġmoss y
Ġgallo ping
Ġyanke es
Ġwarri or
Ġpomp oms
Ġoll ie
Ġcondition s
Ġhipp ie
Ġweigh ing
Ġdren ched
Ġnint endo
Ġvess el
Ġviet nam
Ġperfe ct
Ġdiam ond
easter n
Ġsush i
Ġinvest ig
Ġdil ig
Ġduff el
Ġspik ed
b ut
b ound
b read
e es
e vil
f ronts
g in
h ats
m m
m ates
m allow
n al
r up
s hed
u is
w er
w ise
z ens
Ġa ust
Ġa we
in ary
Ġt iss
Ġt ucked
Ġs ons
Ġs ize
Ġo h
an se
Ġb one
Ġb illow
he ast
Ġp oo
Ġm ike
Ġc ad
ro of
Ġf ine
Ġd id
Ġd arts
la ble
at ch
Ġman ic
Ġman hole
un e
Ġst ood
Ġst itch
id as
and s
Ġdo zens
op er
ra d
Ġtw ins
ut heast
Ġre pla
Ġplay ful
Ġth r
Ġr ise
Ġn ow
Ġn orm
Ġba za
Ġlo it
Ġlo ving
Ġho ses
Ġblack board
ot a
um ble
ad or
Ġwal ing
Ġbe ij
ver ty
Ġro ast
Ġro ute
Ġro asting
im ents
Ġla w
Ġhe at
Ġha wk
Ġk arao
Ġwater y
Ġcar ve
Ġpo verty
Ġfo il
Ġrun way
Ġne eds
Ġle i
Ġle ts
Ġv ig
Ġv ivid
Ġbi gger
Ġsp a
Ġsp ikes
Ġsp reading
Ġsnow ing
Ġtra p
che sted
air s
Ġjack hammer
Ġwa vy
Ġso utheast
sh und
ist ry
Ġfa ced
Ġmo ut
Ġun ice
Ġpar amed
Ġpar lor
Ġli vely
Ġad idas
Ġbicycle rs
Ġpro jects
Ġpro min
Ġpro blem
Ġen for
Ġca ges
Ġwind y
Ġband s
Ġband age
Ġstore fronts
Ġtre ats
Ġbat hed
Ġhigh ly
Ġdes ola
Ġgr an
Ġbackpack ers
Ġcor al
co ats
Ġdoor step
Ġfam ous
ane led
Ġfriend ly
Ġwin ner
Ġconvers es
Ġcheck er
Ġcup cake
Ġpick ed
Ġpres umably
Ġpot ent
Ġplat ter
Ġpaint ball
Ġped dling
Ġindian s
Ġcliff s
Ġflower ing
Ġtro uble
Ġphotograph y
mb ling
Ġsculp tor
Ġadvertis es
Ġclear s
Ġexp anse
Ġring ing
Ġchain ed
Ġcolle ct
Ġlab rad
Ġtun ing
Ġwaters ide
Ġeat ery
Ġes p
Ġmust ached
Ġclean ed
Ġhalf way
Ġspr inting
Ġpuddle s
Ġtu ss
Ġdef end
Ġprin ts
Ġdread s
Ġdump ing
Ġplan ks
Ġpri ze
Ġlon ely
Ġlear n
Ġbreakdan ces
Ġbla de
Ġge omet
Ġcameram en
Ġhop ing
Ġcall ing
Ġdom e
Ġlat ino
Ġav ai
Ġut ens
Ġremo ve
Ġarr anging
Ġheaddress es
Ġmusc le
Ġchar co
Ġcomfor t
Ġscream s
Ġcoo ling
Ġtext ile
Ġscient ists
Ġva ult
Ġintervie wing
Ġsear ch
Ġassist ance
Ġretur ning
Ġmarsh mallow
Ġfork lift
Ġhorizont ally
Ġming ling
Ġlun ges
Ġcou ches
Ġstrum s
Ġscoop ing
Ġprov iding
Ġweap ons
the med
Ġcroc s
Ġchem istry
Ġskyscra per
Ġglan ces
Ġrus hing
Ġtechn ique
Ġspir al
Ġspec im
Ġvolunte ers
Ġsitu ation
fl ip
Ġque en
Ġcyl inder
Ġtwent y
Ġmache te
Ġcler k
Ġrav ine
Ġvel vet
Ġtrot ting
Ġrom antic
Ġlocomot ive
Ġ200 8
Ġmetropol itan
Ġagg ress
Ġshr ine
Ġintern ational
Ġsatche l
Ġhig her
Ġoutcro pping
Ġsquir rel
Ġgamb ling
Ġsandwic hes
Ġdilig ently
Ġbaza ar
Ġbeij ing
Ġkarao ke
Ġunice f
Ġdesola te
Ġgeomet ric
a e
a ws
g ent
k ers
o ugh
r ise
s y
s wing
u ing
v o
y al
Ġ et
Ġ ide
Ġ ign
Ġ ike
Ġa uth
in te
Ġs ession
Ġs ib
Ġs izes
Ġw ants
Ġo ccas
an ces
Ġb ark
Ġin k
Ġp ers
Ġp lywood
Ġm r
is c
ar ian
Ġon looking
Ġd ing
Ġd ach
Ġd ummy
Ġst a
Ġsh ares
Ġtw el
Ġtw isting
Ġbo a
Ġbo l
Ġbo om
Ġbo dies
Ġy ama
Ġpe an
Ġpe eling
Ġre vol
Ġre lease
Ġth omas
Ġr v
Ġr uff
st airs
Ġch art
Ġch unk
Ġj ars
Ġba dge
Ġlo b
Ġlo s
Ġlo wered
Ġho st
Ġho ur
Ġbe ater
il i
Ġro mp
Ġro ped
Ġmen us
ri ger
Ġsm ir
Ġher ding
Ġhe ated
ul ts
Ġcar ves
Ġpa la
Ġpo ll
Ġcro p
Ġgreen s
Ġgreen ish
Ġsk ips
Ġother wise
Ġside line
Ġside walks
Ġsnow f
Ġtra de
Ġball game
Ġte eter
Ġcam pers
Ġthat ched
Ġhair style
sk i
Ġpar ag
Ġcolo ur
ant ed
Ġad ding
Ġbicycle r
Ġpre vent
Ġche ered
are r
Ġtan ks
Ġfoot pr
Ġground s
Ġbar bie
Ġpat ches
Ġfl iers
Ġsa u
Ġfla shing
Ġsl ice
Ġbat ons
Ġfore arm
Ġsurround s
Ġsleep y
Ġart if
Ġind ig
Ġjo e
Ġcre ature
Ġafr ica
Ġbre aks
Ġsha ft
Ġcra shes
Ġgent ly
Ġglo be
Ġal umin
Ġtake out
Ġtat tered
ou ld
Ġpit ches
Ġconcer ned
ven ue
Ġcla ps
Ġpost al
Ġform ed
Ġref riger
Ġtro ts
Ġtro upe
Ġshot gun
Ġleg o
Ġobser ved
ens ion
Ġcr is
Ġmed al
Ġchrist ian
ib ility
Ġpier ced
Ġexp ensive
Ġbath robe
Ġpan cakes
Ġ5 0
Ġstr ides
Ġdon ut
Ġgroom s
Ġsum mit
Ġfig ur
Ġkeyboard s
Ġentertain er
Ġbm w
Ġnap k
Ġpitcher s
Ġrollersk aters
Ġdust pan
Ġdesign er
Ġescala tors
Ġposition s
Ġaut o
Ġrec ipe
Ġgrand pa
Ġlet ting
Ġweat hered
stra ct
Ġpump s
boo ks
Ġevery thing
Ġdump s
Ġbund les
Ġpri m
Ġfashion able
Ġange les
Ġorgan izing
Ġtex ts
Ġsty lish
Ġwhis per
Ġhun ting
Ġmex ico
Ġspark ly
Ġbrit ain
Ġacc ents
Ġwand er
Ġacrobat ics
Ġharves t
ule le
Ġsen iors
Ġintervie ws
Ġsco ops
Ġmaneu vers
Ġdol ly
Ġofficial s
Ġgoo se
Ġcann ot
Ġlock ers
Ġarchite ct
Ġfound ation
Ġamaz ing
Ġab stract
Ġber lin
Ġvideot aping
Ġornam ent
Ġreleas ing
Ġfi xture
Ġsket ch
Ġattent ive
Ġbloss oms
Ġsnork el
Ġamp l
Ġcling s
Ġcling ing
Ġcommunic ating
Ġanticip ation
Ġuk ulele
Ġpiercing s
Ġspi ky
Ġwaff le
Ġcommut ers
Ġginger bread
Ġsolder ing
Ġaccess ories
Ġadvent ure
Ġwro ng
Ġsledge hammer
Ġpengu in
Ġairl ine
Ġinse ct
Ġswamp y
Ġbroch ure
Ġquart et
Ġfingern ails
Ġpopula ted
Ġti ara
Ġbagg age
Ġproje ction
Ġaffe ction
Ġbree ze
Ġnin ja
Ġsomersa ult
Ġtechnolo gy
Ġlinger ie
Ġgovern ment
Ġappla ud
Ġalb um
Ġtypewrit er
Ġtiss ue
Ġenfor cement
Ġavai lable
Ġcharco al
Ġike a
Ġauth or
Ġsib ling
Ġoccas ion
Ġdach shund
Ġtwel ve
Ġyama ha
Ġalumin um
a iled
b ar
c ol
f lowing
j ab
n es
n ets
o y
u x
w led
w ls
Ġ %
Ġ q
Ġa la
Ġa st
Ġa stro
Ġt ren
Ġs ow
Ġs if
Ġs uck
Ġs ashes
Ġw ant
Ġw ipes
Ġw ould
Ġo ct
Ġp u
Ġp is
Ġp ensive
Ġm ard
Ġm ind
Ġc ue
Ġc ors
Ġc eram
le ry
ro ugh
Ġan x
Ġg ird
Ġf al
Ġh ide
Ġh ound
la mic
en ous
Ġis lamic
Ġst em
ck led
Ġwh ist
Ġto wing
id ers
Ġsh ading
Ġare as
Ġpe ppers
Ġre en
Ġre ind
Ġre aring
oun ts
st y
Ġch oo
Ġch alle
Ġch ief
ge ous
Ġj im
Ġn es
Ġn yc
Ġyoung ster
Ġho ling
el ly
Ġfro sting
Ġro yal
Ġstre aks
Ġstreet light
Ġstreet lights
nt able
im ing
Ġgroup ed
Ġher bs
Ġhe dge
Ġta ped
Ġta ught
bo bs
Ġback flip
Ġne g
Ġne cks
Ġle m
Ġcro uch
Ġsw irl
Ġv ent
Ġse min
Ġse quin
ind le
Ġsp ear
Ġsp ag
Ġtra iling
Ġbuild s
Ġso aring
dy ed
Ġclo ser
Ġar ches
ru g
Ġcom ic
Ġpar a
Ġbri mmed
Ġad d
Ġdark ly
Ġpro gra
Ġpro ps
Ġpro mo
rip t
Ġsuit ed
Ġcomp act
ale d
Ġca ct
Ġca ged
Ġde vil
pe c
Ġbar ks
Ġex chan
Ġsa uce
Ġmar ks
Ġsl anted
Ġstick er
Ġmark ers
ort h
Ġcan es
Ġcan on
Ġpast a
Ġbasketball s
Ġcle ats
Ġdri ft
Ġve gas
Ġdes per
Ġlea ve
Ġgr illed
Ġboard er
Ġjo ke
Ġcre me
Ġdrum ming
Ġtod ay
Ġtur ntable
Ġey el
Ġhi jab
Ġwheel ing
Ġpoin ty
ank ment
Ġrain s
Ġrain storm
Ġcra cked
Ġwr ang
Ġhood s
Ġste ers
Ġkis sed
Ġstat ute
Ġal ly
Ġal read
Ġpad dy
Ġpad ding
Ġnet ting
Ġint imate
Ġpres chool
Ġpot ter
Ġ3 3
Ġland mark
ond ers
Ġneck tie
Ġform ations
Ġcounter top
Ġdecor ate
Ġrep ort
Ġrep elling
Ġstar ted
Ġobser vers
Ġpr ice
Ġcand id
Ġbur n
Ġwra ps
Ġcas es
Ġ1 5
Ġcollar s
Ġrefle cted
Ġinclud e
Ġpack ing
Ġtong ues
Ġemb ankment
com ple
whe els
Ġspr int
Ġexc iting
Ġknit s
Ġwarm ers
go ers
Ġentertain ers
vie w
Ġke pt
Ġinter net
Ġgrind er
Ġcontro lled
Ġaut ogra
Ġappl ied
ma id
Ġju gs
Ġbass ist
Ġbun k
Ġfly er
Ġnur sing
Ġbillboard s
Ġcompetit ively
Ġcontest ant
Ġsnowsh o
Ġportra its
Ġtail g
Ġimp ress
Ġbrow se
Ġspark ling
Ġspark ler
Ġrif les
Ġcongreg ation
Ġvictor ian
Ġattend ees
Ġchar ging
Ġcomfor table
Ġwand ering
Ġtwirl s
Ġcanad a
Ġsurpr ise
Ġfind s
Ġado be
Ġbarric ades
Ġpow ered
Ġbridesma id
Ġretur ns
Ġnavig ating
Ġcock tail
Ġasc ends
Ġox en
Ġpuzz led
Ġamaz ement
Ġdolph ins
Ġquest ions
Ġdandel ions
Ġcivil ian
Ġcivil ians
Ġmist y
Ġrefre shing
Ġjam ming
Ġflex ing
Ġrus hes
Ġless on
Ġsnork eling
Ġveter ans
Ġur in
app les
Ġsolid er
Ġchore ogra
Ġcontin ue
Ġarrange ment
Ġbage l
Ġfrolic s
Ġphys ical
Ġpassion ately
Ġplu gging
Ġpamph let
circ le
Ġhol lywood
Ġka bobs
Ġawkward ly
het ti
Ġoverh ang
Ġturb ans
Ġrespon ding
Ġrefresh ments
Ġoccur ring
Ġrect angular
Ġever green
Ġneat ly
Ġnorm al
Ġlob ster
Ġcolour ful
Ġfootpr ints
Ġindig enous
Ġampl ifier
Ġreind eer
Ġchalle ng
Ġspag hetti
Ġpromo ting
Ġalread y
1 1
a sh
b rown
d ri
f light
h orn
h adow
k art
o le
t ra
t ch
t ying
v in
w ag
Ġ er
Ġ ig
Ġ iv
Ġa stride
Ġt ors
Ġo re
Ġo xy
Ġb ir
Ġb ru
re ts
Ġp ug
Ġp ens
Ġp lowing
Ġp anda
Ġm ort
Ġc ure
Ġg ut
Ġf ry
Ġf ights
Ġf ift
Ġf aded
Ġf right
Ġon ion
Ġon ions
al o
en sely
at ively
Ġto pping
on ist
op us
Ġbo ss
Ġpe pper
Ġre un
Ġre eds
Ġre no
ch ild
Ġr ival
Ġch i
Ġch ats
Ġch andel
ur st
ur ney
Ġn orth
irl y
Ġco al
el led
um a
um ents
Ġbe ak
Ġout er
ri ff
Ġdown wards
Ġhe n
Ġhe dges
ks wag
ent a
Ġback ed
Ġback side
Ġra m
Ġra cks
Ġbu cks
Ġbu zz
Ġsw ad
Ġv ista
Ġsk illed
for t
Ġse ren
ind ers
Ġsn ugg
Ġyel ls
Ġsp ool
Ġtra pe
Ġball room
ure ly
Ġwa king
wd ed
wd ri
Ġso u
Ġso ck
Ġar id
Ġsc ored
Ġcam e
Ġfa irly
Ġun t
Ġun cut
Ġsho cked
Ġgu est
Ġcom b
do g
Ġje we
Ġwalk ie
gg an
rip tion
Ġflo rid
Ġsign als
Ġsweat suit
Ġbar red
Ġbar bed
Ġday s
Ġcap es
Ġconstruction s
Ġsl ump
Ġtre ks
Ġcan cer
Ġri bs
Ġlight er
Ġmat ador
Ġgr ate
Ġart icle
Ġme an
Ġme als
Ġtr ink
Ġcre ation
Ġcre ated
Ġdrum mers
iz er
Ġtur f
Ġbre ed
Ġpul lo
Ġlot tery
Ġbed s
Ġhood ies
Ġste aks
Ġbeautiful ly
Ġed ges
Ġstro ke
Ġal low
Ġal ter
Ġser iously
head ed
Ġint ensely
Ġanim ated
Ġtrail s
Ġnot ice
Ġkn ight
Ġspect ac
Ġpaint ers
Ġped est
Ġfix ed
Ġty e
Ġbra ces
Ġdesk top
Ġviolin ists
Ġexam ined
Ġsmo key
Ġgolf ing
Ġbur ger
ho ld
ho se
ho ops
Ġfather s
Ġsea side
Ġ1 4
Ġ1 6
Ġ1 8
Ġass ign
Ġass ists
Ġoper ated
Ġmag enta
Ġori gin
Ġguard ed
Ġpan els
Ġsusp ension
com es
Ġappro xim
Ġrob ed
Ġentertain ed
Ġshoe less
Ġfabr ics
Ġchop ped
Ġtrump ets
Ġpin striped
Ġdef ends
Ġcontro ller
Ġgrand son
Ġgl it
Ġlay up
Ġheadband s
Ġarch ae
Ġleaf s
Ġwild flowers
Ġkeep er
Ġstrange ly
Ġplan ter
da ughter
Ġsocial ize
Ġsla l
Ġsla bs
Ġreg al
Ġinte rest
Ġcel tic
Ġhuddle s
Ġpress ing
Ġflat bed
Ġvacuum s
Ġjoy fully
Ġpine apples
Ġdec als
Ġdec ides
Ġdro pped
Ġgradu ate
Ġbad ges
Ġpoor ly
Ġexplo res
Ġfit ting
Ġfit ness
Ġut il
Ġremo ves
Ġremo ved
Ġsoap y
Ġcomfor ting
Ġcoo lers
Ġvol can
Ġvol kswag
Ġbound ing
Ġintervie w
Ġsear ches
Ġassist ant
Ġrecor der
Ġgri m
Ġsteam ing
Ġtoile ts
Ġja gged
Ġexpla ins
Ġnavig ate
Ġdet e
Ġlock er
Ġgras ps
Ġdraw er
Ġya wns
Ġox ford
Ġbump y
Ġbroad ly
Ġsling shot
Ġstrawber ries
Ġsan itation
Ġital y
Ġornam ental
Ġlaun ching
Ġlaun ches
dot ted
Ġsurve ys
Ġveter an
Ġsepar ated
Ġshell s
Ġpear l
Ġgrima ces
Ġponch o
Ġstrad dling
Ġisrael i
Ġdalm at
Ġbas in
Ġclust er
climb ing
Ġtink er
Ġpea cock
Ġlifegu ard
Ġlla ma
Ġcolon ial
Ġscre wdri
Ġgran ite
Ġpotent ial
Ġlabrad or
Ġtuss le
Ġspecim en
Ġrevol ution
Ġpala ce
Ġnapk in
Ġtren dy
Ġoct opus
Ġmard i
Ġceram ic
Ġlem ons
Ġsemin ar
Ġtors o
Ġoxy gen
Ġtrape ze
Ġflorid a
Ġapproxim ately
Ġarchae olog
a ic
a way
a ves
b it
b ird
b ac
c ards
d ging
e ad
e ven
e ared
f ighting
f ives
g i
g rown
i ator
l ican
p erson
p hed
t ar
t ry
t uce
u a
v a
v ic
v ag
w on
Ġ x
Ġa ff
Ġa ids
in ated
in ted
Ġt umbling
Ġw ent
Ġw ars
an cis
re scent
Ġin v
Ġp red
Ġp uma
Ġc ert
Ġc uddle
Ġc uddling
ro ud
ar an
Ġg one
Ġg lad
Ġf ru
Ġd s
Ġd ips
la tion
al y
ir a
Ġst ony
ck er
or se
Ġwh y
Ġto n
Ġto bo
Ġsh ark
Ġsh ine
Ġsh ipping
Ġy ong
ut ist
Ġpe p
Ġpe lican
Ġre bound
Ġth ink
Ġr at
st e
st in
Ġch or
Ġch im
ur y
ur ance
Ġn ation
Ġba ke
Ġlo ves
Ġlo sing
Ġho e
Ġho urs
Ġho isted
Ġblack top
Ġco aches
Ġbl uish
um bles
Ġbe et
Ġbe arer
Ġe iff
ver ted
Ġgro uch
Ġro am
Ġhold er
Ġla ce
Ġla bo
Ġhe eled
Ġha zard
Ġta sting
Ġgra ins
Ġk il
ress o
Ġpa ving
Ġpa ges
Ġpa isle
Ġup coming
Ġup turned
Ġup stairs
Ġfo lders
Ġra ys
Ġcro tch
Ġsw o
Ġsw ans
Ġsw allow
Ġsw ung
Ġbro ws
Ġsn oo
Ġover flowing
Ġover grown
Ġcon ical
Ġsp ong
Ġhand c
ian ce
ink y
Ġgrass es
Ġar rows
Ġcam cor
ph ony
ist ic
Ġtable t
Ġfa cade
Ġbeach front
Ġgo d
Ġmo ck
Ġair ways
Ġsun b
Ġsun rise
Ġun even
Ġshor ter
Ġtop ic
ire s
Ġcom ed
Ġgray ish
Ġmid riff
Ġhel l
Ġpar ading
qu ets
shirt ed
Ġsand s
Ġpur suit
Ġflo rescent
Ġcomp r
Ġmot ions
Ġhands ome
Ġatt ach
Ġatt ends
Ġen co
Ġen ough
Ġca ro
Ġhor ned
Ġde fla
Ġmotor boat
Ġfl utes
Ġex ting
Ġtoy ota
Ġmar ine
Ġrest room
Ġapp re
Ġfla ps
Ġdis pen
Ġdis inte
Ġob ese
Ġtre ads
Ġpast ure
Ġfr ancis
Ġcle n
Ġdri es
Ġdri fting
Ġpol ishing
Ġcell ist
Ġgr id
sc ale
Ġbow ed
Ġbes pect
Ġdi pping
Ġme lons
Ġbeard s
Ġsub ject
dler s
we iler
Ġpl um
ac led
Ġpra ys
Ġno ise
Ġcount y
Ġcur ls
Ġ2 3
Ġ2 4
Ġ2 8
Ġstud ded
Ġrain coats
Ġwe ed
Ġwin try
Ġequ ipped
ric al
Ġent ers
ps y
Ġser vices
Ġemp tying
Ġnot ep
Ġres id
Ġsaf ely
os able
Ġhapp iness
ven ir
Ġmart ini
Ġbull horn
Ġcla w
Ġcla ms
Ġrela ted
ugg ed
Ġim m
Ġbra id
Ġbra ve
Ġtro op
ced es
Ġconversation s
Ġpr un
Ġloc als
Ġspra wled
Ġfur ther
Ġmed ia
Ġbur ying
Ġgymnast s
Ġsto ops
Ġexp osed
Ġda ught
Ġlog os
Ġcolle cted
Ġoper ator
Ġtun es
Ġsquare pants
Ġhur t
Ġhur ry
Ġfair ground
Ġtrans form
Ġcook out
Ġwaterf alls
Ġinf ants
Ġstr ide
Ġdon ning
Ġcri me
Ġshadow y
Ġshadow ed
Ġmove ment
Ġsim ple
Ġmer maid
Ġmod els
Ġcamp ground
Ġcomple ted
Ġrec ent
Ġgrand daughter
Ġlet tuce
Ġsheep dog
Ġlay ers
Ġfiret rucks
Ġload s
Ġmis sed
Ġvac ant
Ġsu c
Ġsu cks
Ġpump ing
Ġfree way
Ġsy ring
Ġbul let
Ġspread s
Ġscru bbing
Ġhum orous
Ġnote books
Ġpri zes
Ġjet ty
Ġlear ns
Ġlan yard
Ġloom s
Ġpress ed
Ġparas ail
Ġsal vation
Ġpee k
Ġrap id
Ġdec iding
Ġscore s
Ġbulldo g
Ġsty l
Ġcop per
Ġbush y
Ġmusc les
Ġchar ity
Ġcomfor ter
Ġscient ific
Ġsquirt s
Ġcub e
Ġkno cked
Ġsym phony
Ġassist ed
Ġinst ead
Ġcoast line
Ġattack ing
Ġunlo ad
Ġmi xture
Ġmeas ure
Ġneed le
Ġneed ed
Ġsilhouet tes
Ġcontempla tes
Ġbon net
Ġbump er
Ġtrave ler
Ġpossession s
Ġadolesc ents
Ġwield s
Ġsplit ting
Ġinc ense
Ġcycle s
Ġpatro lling
Ġwonder ful
Ġvideot apes
Ġhealth care
cro wded
Ġreleas ed
Ġrot t
Ġsket ching
Ġsurve ying
Ġcarpent ry
Ġwre cked
len ce
Ġtot ter
Ġsitu ated
Ġwristband s
Ġchore s
Ġrecre ational
Ġsombrero s
Ġmel ting
Ġansw er
Ġdoc uments
Ġlemon ade
Ġgrima cing
Ġponch os
lan ter
Ġpurs ued
Ġextra vag
Ġdramat ic
Ġzo oms
blo ck
Ġtet her
Ġsed an
Ġpleas ant
Ġtrek king
Ġexcav ator
Ġresear ch
Ġexhaust ed
Ġmanipula ting
Ġsour ce
Ġpharmac y
Ġdistra cted
Ġlandsc aping
Ġbookshe lf
Ġeyeb rows
Ġcapt uring
Ġdisp osable
Ġvietnam ese
Ġaust ral
Ġesp resso
Ġutens ils
Ġpean ut
Ġartif acts
Ġarchitect ural
Ġast ron
Ġreen act
Ġdesper ately
Ġautogra ph
Ġtopping s
Ġreun ion
Ġreno v
Ġsou venir
Ġjewe lery
Ġslump ed
Ġtrink ets
Ġpullo ver
Ġpedest al
Ġslal om
Ġvolkswag en
Ġfru str
Ġtobo ggan
Ġeiff el
Ġpaisle y
Ġbrows es
Ġspong es
Ġcamcor der
Ġenco ura
Ġfrancis co
Ġbespect acled
Ġdaught ers
a ign
b eat
b ones
d om
g le
g al
h orse
k ed
m el
o ur
o se
p at
p roof
r un
s ball
s est
t an
u lo
u ge
v ous
w ers
Ġ 0
Ġ lack
Ġa a
Ġa ble
Ġa ler
Ġa wards
Ġa vi
Ġa venue
Ġt ests
Ġs ipp
Ġw est
Ġo wl
an i
Ġin n
Ġin verted
Ġp c
Ġp ies
it i
it led
it ude
Ġm ine
Ġm uff
Ġm ma
er n
er ts
ar ily
Ġg n
Ġg lee
Ġg ang
Ġf ling
Ġon ward
Ġd aring
Ġd av
la mp
Ġman ner
un ity
lo o
es ome
Ġwh it
Ġto en
Ġsh in
Ġsh red
Ġsh amp
Ġsh aping
and ing
Ġdo dge
Ġdo zes
ra ised
Ġtw il
Ġtw ig
ss es
ic ated
Ġpe ws
Ġre nt
Ġre as
Ġre co
Ġl ic
Ġth ai
Ġr umm
st age
Ġch ap
Ġj oking
Ġj elly
Ġn am
Ġba sed
Ġlo uis
Ġco in
Ġco als
Ġbl ues
Ġfro l
ad er
ad ers
Ġbe ad
Ġbe ats
Ġbe comes
Ġe c
Ġe re
Ġe cc
Ġla kes
Ġta ss
ion ship
Ġgra pp
ent ric
ul ting
ct ic
Ġcar rot
Ġpa cks
Ġup scale
Ġup raised
Ġra gs
Ġsw ift
Ġbro ught
Ġse am
Ġse wer
Ġma ple
Ġma son
Ġsn o
Ġsn ar
to ck
Ġcon ce
Ġsp ain
Ġsp are
xt ures
Ġwa g
Ġclo sest
Ġsc an
Ġsc ro
Ġfa uc
Ġper f
Ġsun lit
Ġun pack
Ġun paved
Ġgu ided
ip ed
Ġcom bing
Ġbus ily
as es
Ġpar is
Ġli f
ant age
Ġben e
Ġac ts
est ed
Ġche v
Ġbr isk
ore s
Ġsand ing
Ġsand al
Ġcomp artment
Ġcomp osed
Ġmountain eer
Ġsign age
Ġwind mill
Ġde velo
Ġsweat s
mp t
Ġcat hol
ag er
Ġtri ed
Ġtri ath
Ġtri angle
Ġfl ank
Ġfl ung
Ġfl ippers
Ġsa ving
ming ham
Ġfla m
Ġfla pping
Ġsl im
iv ed
ort unity
be e
Ġlight ly
Ġhill top
Ġdes p
Ġfe els
Ġfe eling
Ġski iers
Ġpol ar
Ġmat es
Ġgr ating
Ġart icles
Ġdi or
Ġdi et
Ġhu gged
Ġjo ining
Ġcre ative
Ġsub ur
Ġblo om
co lor
able d
ac ed
ac ting
Ġcount ries
Ġcur vy
ather s
Ġsky nyrd
Ġwe lders
Ġclass mates
Ġcra mp
Ġcra cks
Ġcra dles
Ġdist orted
Ġopp ortunity
Ġwr ists
Ġgraffit ed
Ġfrisbe es
Ġcig ars
Ġstro kes
Ġstra ining
ber ry
Ġal ways
ug ar
Ġnet ted
Ġmul ch
uff ed
Ġfish net
Ġpit ched
Ġpres ence
Ġfun ky
Ġban ging
Ġspect ator
Ġpost ed
Ġpost cards
Ġdire ctor
Ġqu ilted
Ġvio let
Ġvio lence
Ġbra iding
Ġtro ugh
Ġsurfboard er
Ġswe ets
Ġtub s
Ġpr ison
Ġsold ers
th y
Ġairp lan
Ġcr an
Ġmed ian
Ġgolf ers
ton ed
Ġbrun et
Ġbur rit
Ġprote cted
Ġprote ctors
Ġwra pper
Ġrow ers
Ġstream s
Ġstream ing
Ġclear ly
Ġpresent ed
Ġexp osing
Ġrefle ctor
Ġstret cher
Ġlab el
Ġtun e
Ġwaters kis
Ġhur rying
Ġfen ces
Ġdeck ed
Ġtrans action
Ġ4 0
zz y
Ġter race
Ġdeep ly
Ġact ively
Ġspeed boat
Ġsax aphone
Ġracket s
Ġcamoufla ged
Ġfan ny
Ġins p
Ġmop eds
Ġmove ments
Ġchest s
Ġkeyboard ist
go ing
Ġsupp orts
Ġpeace fully
Ġrollersk ate
Ġdemonstr ate
Ġfar ming
Ġraft ers
ab il
Ġdel ight
Ġdel ivers
Ġcamp aign
Ġgrand child
Ġfloat ation
Ġrout ines
Ġmis ses
Ġorn ately
Ġcree py
flo p
Ġble n
Ġintera cts
Ġplan es
Ġcons um
Ġcons ists
Ġhum ans
Ġbean bag
Ġpri mit
Ġcalm ly
Ġparas ails
Ġadjust ments
Ġfet ches
Ġge la
lid er
Ġchess board
Ġreflection s
Ġassem bles
Ġvic tim
Ġexper ien
Ġdom ino
Ġexplo re
Ġinform al
Ġfit ted
Ġill ust
Ġcongreg ated
Ġsharp ening
Ġ7 0
Ġnun s
Ġunus ually
Ġconcentr ation
Ġbound ary
Ġchamp ionship
Ġsund own
Ġskyd ivers
Ġgri pping
Ġattack ed
Ġfer ris
Ġsailo rs
Ġdet ails
Ġfoam y
Ġsol ar
Ġsol ution
Ġbor dered
Ġarri val
Ġhung ry
Ġamaz ed
Ġinc red
Ġbust ling
Ġtast y
Ġtin ted
Ġdess erts
Ġhealth y
Ġgor geous
Ġreclin er
Ġfi xtures
Ġnood le
Ġflu id
Ġbloss oming
Ġlim ous
Ġexca vation
Ġvolunte er
Ġdrain age
Ġseason ing
Ġmu gs
Ġansw ers
Ġdoc ument
Ġmac book
Ġunwra ps
Ġclas ped
hoop ing
Ġdelic ious
Ġfut ure
Ġlives tock
Ġimpro vis
Ġgrip s
Ġdut y
Ġscri mm
Ġener gy
Ġdramat ically
Ġsights eeing
Ġgy psy
Ġrapp elling
Ġfoo sball
Ġcos play
Ġroot s
Ġly nyrd
Ġcowork er
Ġcorp or
Ġbillow ing
Ġrepla cing
Ġthr ill
Ġchecker board
Ġding y
Ġwhisper ing
Ġapplaud ing
Ġsow ing
Ġpis to
Ġgird er
Ġsequin ed
Ġexchan ging
Ġeyel iner
Ġwrang ling
Ġchoreogra phed
Ġchalleng ing
Ġig loo
Ġbir mingham
Ġmort ar
Ġfift h
Ġhen na
Ġswad dled
Ġassign ment
Ġglit tery
Ġregal ia
Ġvolcan o
Ġdete ctor
Ġscrewdri ver
Ġcert ific
Ġglad iator
Ġchim ney
Ġbeet le
Ġsunb athers
Ġdisinte rested
Ġsuc cess
Ġastron aut
Ġsipp y
Ġshamp oo
Ġtwil ight
Ġecc entric
Ġswift ly
Ġfauc et
Ġcathol ic
Ġairplan es
Ġprimit ive
Ġscrimm age
b c
b es
b ear
b ot
b ike
b rimmed
c ans
d as
e e
f c
f ish
g olf
h ow
i ate
i ques
l ar
n as
o ver
p ri
p lane
p here
p aneled
s pe
s ia
t ruck
t tered
u v
w all
w esome
y hose
z as
Ġa wn
Ġa ver
Ġa ri
Ġa wesome
Ġt and
Ġt ru
Ġt imb
Ġt earing
Ġs i
Ġs op
Ġs ugar
Ġw ile
Ġw ore
Ġw ound
Ġb ing
Ġb om
Ġb ones
Ġb isc
he ater
re x
Ġin sc
Ġm am
Ġm ong
Ġc ops
le in
le ap
Ġthe r
Ġthe at
is ion
ro ts
ro pped
Ġan aly
Ġg ey
Ġg na
Ġf uch
Ġf ries
Ġh ops
Ġd w
Ġd re
Ġd umb
Ġd ial
Ġd eath
Ġd ream
Ġd ude
al d
en cil
Ġst al
Ġst ap
Ġst encil
Ġto ned
Ġto asting
Ġsh ri
Ġsh uff
Ġsh ift
and al
Ġdo ve
ic ed
Ġpe as
Ġpe ps
Ġth ous
Ġch a
Ġch illy
Ġj ay
Ġn an
ide red
Ġlo op
Ġlo uds
Ġwhite water
Ġho oking
Ġho vers
Ġho oks
Ġho using
Ġfro wns
Ġwal green
Ġboy friend
Ġout ward
Ġe gy
Ġro ds
ri f
Ġstre aked
Ġla s
Ġla dle
Ġsm as
ow a
ow s
ve led
Ġhe ine
Ġhe aring
Ġha iti
Ġta ping
Ġgra pes
Ġk art
Ġk lein
ress ing
Ġcar ca
Ġcar rots
Ġpa ul
Ġback up
Ġback hand
Ġwor ried
Ġfor ces
Ġle n
Ġbu oy
Ġcro ok
Ġcro pped
red evil
Ġv w
Ġv ans
Ġv ines
Ġlit er
Ġma ps
Ġhat ch
Ġover all
lon g
Ġcon co
Ġsp end
Ġsp ell
ain ed
Ġhand ler
Ġhand gun
che t
Ġwa x
ig ra
ig ration
ap ple
Ġso x
Ġso das
Ġnear s
dy e
Ġclo ak
pp led
Ġcam o
ph ies
ick s
Ġper ches
Ġbackground s
Ġmo v
dle ss
Ġsun flowers
Ġsun hats
Ġdr ills
Ġhead lamp
Ġsho uts
ter ing
ter ned
Ġhair do
sk ating
Ġread ying
as m
Ġpar ap
Ġpar rot
Ġad orn
est yle
Ġpre y
Ġpre teen
Ġpro ce
Ġbr ings
Ġbr indle
ward ess
ha el
Ġen velo
Ġfoot bal
Ġca using
Ġmic hael
Ġam ph
pe aker
ple ss
ple ts
Ġbar bell
Ġday care
ey e
Ġtri ms
Ġcap ris
Ġsa c
Ġsa id
Ġcross bones
Ġdis abled
Ġob l
nis hed
Ġsl ush
Ġshow ering
Ġfr ing
Ġfr illy
ces sing
Ġpass er
ol i
Ġbow ties
Ġev il
Ġme ets
Ġcor re
Ġcor ral
Ġcre vice
iz ation
Ġsub m
Ġblo ody
Ġhit ch
Ġhouse hold
ank y
Ġwin nie
Ġcra bs
Ġcra cking
Ġcra shed
Ġdist ri
Ġwr ink
Ġpolice woman
Ġste ak
Ġste wardess
de cker
Ġscarf s
Ġvar ied
Ġpictures que
Ġgar ter
Ġeyes hadow
Ġpres ident
Ġres pect
os phere
Ġmil ler
alle ts
Ġspect ate
Ġear piece
Ġlin ks
Ġdire cted
cher s
Ġqu al
Ġqu aint
Ġwrest les
if y
Ġdecor ates
Ġty pical
Ġtro phies
Ġswe ating
Ġrep lic
Ġprodu ction
Ġtub ing
Ġtalk ie
Ġcal vin
Ġway s
Ġeng land
Ġprote cts
Ġfest iv
Ġda sh
Ġda redevil
Ġi owa
Ġslo ping
Ġori ent
Ġlow ering
Ġgian ts
Ġ5 3
Ġfeat ure
Ġfeat ured
Ġstr and
Ġappro ached
Ġappro pri
Ġbutton ed
Ġbandan nas
Ġrollersk ater
Ġbou quets
Ġmer cedes
Ġpos ting
Ġmod eling
Ġtho rough
Ġoppos ition
Ġcobble st
Ġpop ular
Ġrece ived
Ġtu gs
Ġteacher s
Ġrec ital
Ġgrand ma
Ġlay ered
Ġcomm on
Ġponytail s
Ġstor ies
Ġpiz zer
Ġpiz zas
Ġpower ful
Ġcorn field
Ġspar se
Ġethnic ity
Ġoutst re
Ġevery body
Ġcondu cts
Ġinstru ction
Ġbackd ropped
Ġwea ve
Ġrough ly
Ġpri v
Ġunicycle s
Ġinvol ves
pr int
Ġwakeboard s
Ġpale stin
Ġjoy ous
Ġdec ided
Ġcru c
Ġdro plets
Ġident ically
Ġcall igra
Ġexper iments
Ġcraw l
Ġwhis k
Ġlat ter
Ġbrief cases
Ġmin isk
Ġmotion ing
Ġtouch down
Ġlass os
gu ing
Ġrem od
Ġrem ains
Ġcomfor ts
Ġdrag ster
Ġgot ten
Ġbuff alo
Ġelabor ately
Ġscra m
Ġscra p
Ġscra bble
Ġscra mbling
Ġatm osphere
Ġchis els
Ġmaneu vering
Ġpac ific
Ġvi king
Ġprop eller
Ġspecial ized
Ġeas y
Ġran ch
Ġsunbat hes
Ġavo iding
Ġasc end
Ġip ad
Ġgig antic
Ġstay s
Ġvertic ally
Ġlun ging
Ġbodysuit s
Ġbreast fe
Ġsaddle d
Ġsquee ze
Ġornam ents
Ġpant yhose
Ġreleas es
Ġny lon
Ġchem ical
Ġwasher s
Ġrevie ws
Ġbloss om
Ġshut tered
Ġsmart phone
Ġzom bies
Ġfid dle
Ġfid dles
Ġtambour ines
Ġtot em
Ġproper ty
Ġtwent ies
Ġtravers e
Ġbage ls
