{"<s>":0,"<pad>":1,"</s>":2,"<unk>":3,"<mask>":4,"!":5,"\"":6,"#":7,"$":8,"%":9,"&":10,"'":11,"(":12,")":13,"*":14,"+":15,",":16,"-":17,".":18,"/":19,"0":20,"1":21,"2":22,"3":23,"4":24,"5":25,"6":26,"7":27,"8":28,"9":29,":":30,";":31,"<":32,"=":33,">":34,"?":35,"@":36,"A":37,"B":38,"C":39,"D":40,"E":41,"F":42,"G":43,"H":44,"I":45,"J":46,"K":47,"L":48,"M":49,"N":50,"O":51,"P":52,"Q":53,"R":54,"S":55,"T":56,"U":57,"V":58,"W":59,"X":60,"Y":61,"Z":62,"[":63,"\\":64,"]":65,"^":66,"_":67,"`":68,"a":69,"b":70,"c":71,"d":72,"e":73,"f":74,"g":75,"h":76,"i":77,"j":78,"k":79,"l":80,"m":81,"n":82,"o":83,"p":84,"q":85,"r":86,"s":87,"t":88,"u":89,"v":90,"w":91,"x":92,"y":93,"z":94,"{":95,"|":96,"}":97,"~":98,"¡":99,"¢":100,"£":101,"¤":102,"¥":103,"¦":104,"§":105,"¨":106,"©":107,"ª":108,"«":109,"¬":110,"®":111,"¯":112,"°":113,"±":114,"²":115,"³":116,"´":117,"µ":118,"¶":119,"·":120,"¸":121,"¹":122,"º":123,"»":124,"¼":125,"½":126,"¾":127,"¿":128,"À":129,"Á":130,"Â":131,"Ã":132,"Ä":133,"Å":134,"Æ":135,"Ç":136,"È":137,"É":138,"Ê":139,"Ë":140,"Ì":141,"Í":142,"Î":143,"Ï":144,"Ð":145,"Ñ":146,"Ò":147,"Ó":148,"Ô":149,"Õ":150,"Ö":151,"×":152,"Ø":153,"Ù":154,"Ú":155,"Û":156,"Ü":157,"Ý":158,"Þ":159,"ß":160,"à":161,"á":162,"â":163,"ã":164,"ä":165,"å":166,"æ":167,"ç":168,"è":169,"é":170,"ê":171,"ë":172,"ì":173,"í":174,"î":175,"ï":176,"ð":177,"ñ":178,"ò":179,"ó":180,"ô":181,"õ":182,"ö":183,"÷":184,"ø":185,"ù":186,"ú":187,"û":188,"ü":189,"ý":190,"þ":191,"ÿ":192,"Ā":193,"ā":194,"Ă":195,"ă":196,"Ą":197,"ą":198,"Ć":199,"ć":200,"Ĉ":201,"ĉ":202,"Ċ":203,"ċ":204,"Č":205,"č":206,"Ď":207,"ď":208,"Đ":209,"đ":210,"Ē":211,"ē":212,"Ĕ":213,"ĕ":214,"Ė":215,"ė":216,"Ę":217,"ę":218,"Ě":219,"ě":220,"Ĝ":221,"ĝ":222,"Ğ":223,"ğ":224,"Ġ":225,"ġ":226,"Ģ":227,"ģ":228,"Ĥ":229,"ĥ":230,"Ħ":231,"ħ":232,"Ĩ":233,"ĩ":234,"Ī":235,"ī":236,"Ĭ":237,"ĭ":238,"Į":239,"į":240,"İ":241,"ı":242,"Ĳ":243,"ĳ":244,"Ĵ":245,"ĵ":246,"Ķ":247,"ķ":248,"ĸ":249,"Ĺ":250,"ĺ":251,"Ļ":252,"ļ":253,"Ľ":254,"ľ":255,"Ŀ":256,"ŀ":257,"Ł":258,"ł":259,"Ń":260,"Ġa":261,"in":262,"Ġt":263,"ing":264,"Ġs":265,"Ġw":266,"Ġ.":267,"Ġo":268,"an":269,"Ġb":270,"he":271,"re":272,"Ġin":273,"Ġp":274,"it":275,"Ġm":276,"Ġc":277,"le":278,"er":279,"Ġthe":280,"is":281,"ro":282,"Ġan":283,"ar":284,"Ġg":285,"Ġf":286,"Ġon":287,"Ġh":288,"Ġd":289,"la":290,"al":291,"ir":292,"en":293,"at":294,"Ġand":295,"Ġman":296,"un":297,"Ġof":298,"Ġis":299,"om":300,"Ġst":301,"ck":302,"lo":303,"ith":304,"Ġwith":305,"or":306,"ld":307,"et":308,"es":309,"Ġwh":310,"Ġto":311,"Ġwom":312,"on":313,"id":314,"Ġ,":315,"Ġsh":316,"and":317,"Ġdo":318,"king":319,"ear":320,"ed":321,"Ġwoman":322,"op":323,"ra":324,"Ġtw":325,"Ġare":326,"Ġtwo":327,"her":328,"ss":329,"Ġbo":330,"ic":331,"Ġy":332,"irt":333,"ut":334,"Ġpla":335,"Ġat":336,"Ġpe":337,"Ġre":338,"ople":339,"Ġpeople":340,"all":341,"oun":342,"Ġl":343,"up":344,"ting":345,"Ġplay":346,"ch":347,"Ġwear":348,"Ġwearing":349,"Ġth":350,"ers":351,"Ġr":352,"wn":353,"Ġshirt":354,"ite":355,"Ġstand":356,"st":357,"Ġch":358,"ge":359,"Ġj":360,"ur":361,"Ġn":362,"Ġsit":363,"ide":364,"ile":365,"Ġyoun":366,"Ġyoung":367,"ild":368,"Ġba":369,"Ġlo":370,"Ġwhite":371,"Ġho":372,"ue":373,"lack":374,"irl":375,"gh":376,"Ġblack":377,"Ġco":378,"Ġgirl":379,"el":380,"Ġbl":381,"ot":382,"Ġfro":383,"um":384,"und":385,"Ġwhile":386,"Ġhis":387,"ad":388,"Ġwal":389,"Ġdog":390,"Ġboy":391,"Ġblue":392,"Ġbe":393,"Ġout":394,"ts":395,"il":396,"Ġred":397,"Ġwat":398,"us":399,"am":400,"Ġe":401,"ver":402,"Ġgro":403,"ce":404,"Ġro":405,"Ġsitting":406,"Ġmen":407,"Ġchild":408,"ri":409,"Ġhold":410,"Ġstanding":411,"Ġloo":412,"Ġstre":413,"Ġplaying":414,"ard":415,"Ġstreet":416,"nt":417,"im":418,"Ġgroup":419,"Ġdown":420,"oo":421,"Ġas":422,"round":423,"Ġla":424,"ree":425,"Ġsm":426,"Ġfront":427,"Ġher":428,"ow":429,"ve":430,"Ġwalking":431,"low":432,"Ġhe":433,"ks":434,"Ġholding":435,"ke":436,"Ġha":437,"Ġta":438,"ion":439,"Ġsom":440,"Ġgra":441,"ent":442,"Ġk":443,"ul":444,"ress":445,"Ġone":446,"ct":447,"Ġwater":448,"se":449,"bo":450,"ie":451,"side":452,"Ġcar":453,"Ġpa":454,"Ġdress":455,"ach":456,"Ġback":457,"ying":458,"Ġby":459,"Ġwor":460,"Ġpo":461,"Ġthree":462,"ugh":463,"Ġup":464,"Ġfo":465,"ump":466,"reen":467,"Ġrun":468,"Ġra":469,"igh":470,"ark":471,"tle":472,"Ġfor":473,"Ġne":474,"Ġle":475,"Ġthro":476,"Ġbu":477,"Ġcro":478,"uit":479,"Ġgreen":480,"hing":481,"Ġwomen":482,"red":483,"ack":484,"Ġsw":485,"Ġv":486,"Ġsk":487,"for":488,"Ġbro":489,"Ġjump":490,"Ġlit":491,"ay":492,"Ġlooking":493,"Ġrid":494,"Ġse":495,"form":496,"ind":497,"Ġma":498,"one":499,"Ġhat":500,"ren":501,"ble":502,"Ġsn":503,"Ġlar":504,"ther":505,"Ġbi":506,"Ġlittle":507,"ood":508,"Ġlarge":509,"Ġor":510,"Ġother":511,"Ġoutside":512,"Ġside":513,"Ġyel":514,"Ġbrown":515,"to":516,"erson":517,"Ġyellow":518,"Ġperson":519,"Ġover":520,"ball":521,"Ġsome":522,"lon":523,"Ġchildren":524,"Ġcon":525,"Ġsp":526,"Ġsnow":527,"Ġthrough":528,"ly":529,"ain":530,"Ġtra":531,"Ġhand":532,"Ġball":533,"ian":534,"em":535,"ure":536,"lass":537,"che":538,"air":539,"Ġfrom":540,"Ġtheir":541,"xt":542,"ning":543,"yc":544,"Ġold":545,"ink":546,"Ġbuild":547,"other":548,"Ġbuilding":549,"Ġjack":550,"Ġsmall":551,"Ġnext":552,"Ġwa":553,"ight":554,"Ġinto":555,"ig":556,"Ġjacket":557,"ground":558,"ap":559,"wd":560,"Ġso":561,"Ġcrowd":562,"alk":563,"Ġte":564,"ving":565,"Ġnear":566,"Ġdressed":567,"sh":568,"board":569,"Ġgrass":570,"ange":571,"Ġanother":572,"Ġrunning":573,"dy":574,"Ġit":575,"Ġclo":576,"Ġriding":577,"Ġar":578,"pp":579,"ate":580,"ru":581,"ield":582,"Ġsc":583,"Ġcam":584,"ph":585,"Ġaround":586,"cer":587,"age":588,"ans":589,"walk":590,"ist":591,"Ġorange":592,"ling":593,"ick":594,"ount":595,"ycle":596,"Ġoff":597,"Ġfield":598,"Ġtable":599,"Ġfa":600,"lasses":601,"rying":602,"Ġper":603,"Ġwork":604,"Ġstands":605,"Ġbeach":606,"ep":607,"Ġbackground":608,"Ġgo":609,"Ġpink":610,"Ġmo":611,"ture":612,"dle":613,"Ġbeh":614,"Ġbehind":615,"Ġair":616,"Ġsidewalk":617,"ff":618,"ine":619,"ity":620,"Ġsun":621,"Ġjumping":622,"Ġperform":623,"Ġun":624,"Ġpic":625,"era":626,"Ġgirls":627,"Ġshor":628,"ching":629,"Ġdr":630,"Ġsits":631,"Ġtop":632,"Ġhead":633,"Ġsho":634,"Ġrock":635,"by":636,"end":637,"Ġsur":638,"iling":639,"Ġbike":640,"Ġ'":641,"Ġthat":642,"cing":643,"Ġcamera":644,"Ġgu":645,"Ġwall":646,"Ġlooks":647,"ip":648,"ire":649,"ating":650,"Ġpicture":651,"Ġpark":652,"te":653,"Ġasian":654,"way":655,"ter":656,"Ġtal":657,"Ġhair":658,"Ġcom":659,"ud":660,"Ġcl":661,"Ġdogs":662,"Ġcity":663,"Ġwood":664,"do":665,"ves":666,"Ġbus":667,"ants":668,"Ġguit":669,"Ġguitar":670,"eat":671,"ice":672,"Ġje":673,"Ġfour":674,"sk":675,"Ġread":676,"Ġplayer":677,"ub":678,"Ġolder":679,"as":680,"get":681,"Ġsoc":682,"Ġbic":683,"ountain":684,"Ġhim":685,"Ġdan":686,"ame":687,"Ġhas":688,"ction":689,"Ġgray":690,"ool":691,"Ġworking":692,"ches":693,"ill":694,"lond":695,"Ġblond":696,"ors":697,"Ġsoccer":698,"Ġguy":699,"ething":700,"Ġsomething":701,"Ġalon":702,"Ġmid":703,"veral":704,"Ġph":705,"Ġseveral":706,"Ġhel":707,"Ġpar":708,"lle":709,"Ġtalking":710,"Ġcolo":711,"Ġshorts":712,"phone":713,"Ġwalk":714,"Ġbri":715,"Ġlady":716,"les":717,"ng":718,"Ġuni":719,"qu":720,"Ġclot":721,"shirt":722,"Ġli":723,"Ġskate":724,"Ġpants":725,"Ġwalks":726,"ant":727,"Ġboys":728,"Ġben":729,"Ġsmiling":730,"Ġac":731,"Ġthem":732,"Ġuniform":733,"ation":734,"Ġjeans":735,"ll":736,"Ġad":737,"Ġplays":738,"est":739,"ign":740,"Ġdark":741,"ive":742,"gg":743,"Ġbicycle":744,"Ġalong":745,"Ġpre":746,"Ġpro":747,"Ġche":748,"Ġbr":749,"Ġroad":750,"Ġswim":751,"kes":752,"ful":753,"Ġkid":754,"Ġfood":755,"rip":756,"ore":757,"Ġsuit":758,"Ġskateboard":759,"umb":760,"gether":761,"Ġgame":762,"Ġcarrying":763,"Ġtogether":764,"Ġsand":765,"Ġholds":766,"Ġpur":767,"Ġflo":768,"are":769,"imb":770,"Ġbase":771,"Ġbench":772,"ward":773,"Ġoutdo":774,"Ġ\"":775,"Ġund":776,"Ġabo":777,"Ġus":778,"Ġlong":779,"Ġget":780,"gs":781,"Ġpain":782,"Ġcomp":783,"Ġclimb":784,"Ġunder":785,"Ġbal":786,"sing":787,"Ġface":788,"Ġtan":789,"Ġbaby":790,"Ġmountain":791,"Ġthere":792,"Ġdirt":793,"ale":794,"Ġmus":795,"Ġglasses":796,"Ġmot":797,"Ġstage":798,"led":799,"Ġarm":800,"uth":801,"Ġstrip":802,"Ġsing":803,"Ġhands":804,"Ġsign":805,"Ġwait":806,"ha":807,"Ġfem":808,"hes":809,"Ġatt":810,"ok":811,"Ġtree":812,"Ġchair":813,"Ġen":814,"Ġfoot":815,"Ġcoup":816,"Ġboat":817,"Ġcoat":818,"Ġca":819,"Ġmic":820,"Ġtaking":821,"Ġdoing":822,"Ġpool":823,"Ġwho":824,"lder":825,"Ġam":826,"ies":827,"ell":828,"Ġwatching":829,"Ġjumps":830,"Ġhor":831,"stru":832,"Ġwind":833,"Ġde":834,"ross":835,"Ġteam":836,"Ġmicro":837,"Ġbask":838,"Ġeach":839,"Ġmale":840,"Ġbasket":841,"Ġshe":842,"Ġshop":843,"Ġcouple":844,"met":845,"ust":846,"Ġbaseball":847,"Ġsweat":848,"ft":849,"Ġground":850,"pe":851,"mp":852,"Ġhelmet":853,"Ġarea":854,"ple":855,"ull":856,"Ġbar":857,"Ġcat":858,"ag":859,"Ġday":860,"Ġpat":861,"ence":862,"Ġband":863,"Ġmotor":864,"ey":865,"oto":866,"Ġphoto":867,"Ġtri":868,"Ġmouth":869,"Ġfemale":870,"ican":871,"Ġconstru":872,"Ġfl":873,"Ġmusic":874,"Ġmiddle":875,"Ġbeing":876,"ry":877,"Ġspe":878,"uring":879,"Ġlook":880,"Ġrace":881,"Ġcap":882,"Ġaf":883,"Ġcolor":884,"Ġperforming":885,"Ġsurf":886,"Ġstriped":887,"Ġconstruction":888,"glasses":889,"ents":890,"Ġex":891,"ping":892,"Ġbot":893,"ess":894,"Ġgat":895,"Ġtoy":896,"Ġroom":897,"Ġhorse":898,"Ġpurple":899,"io":900,"Ġacross":901,"Ġswing":902,"Ġop":903,"Ġmany":904,"ired":905,"Ġtoward":906,"Ġsunglasses":907,"Ġsa":908,"oking":909,"Ġmar":910,"Ġwindow":911,"Ġcross":912,"Ġrest":913,"Ġset":914,"Ġwhe":915,"Ġfootball":916,"Ġeating":917,"Ġapp":918,"Ġstore":919,"Ġag":920,"Ġruns":921,"ment":922,"Ġtrain":923,"ming":924,"cks":925,"Ġkids":926,"Ġten":927,"Ġfla":928,"ner":929,"Ġfis":930,"Ġdis":931,"ne":932,"Ġits":933,"wing":934,"Ġusing":935,"Ġob":936,"haired":937,"nis":938,"Ġreading":939,"Ġmicrophone":940,"ak":941,"Ġsl":942,"rel":943,"Ġfire":944,"Ġtre":945,"Ġtennis":946,"ging":947,"Ġadul":948,"Ġprep":949,"ance":950,"Ġwatch":951,"str":952,"Ġstick":953,"aring":954,"Ġplayers":955,"Ġmotorc":956,"use":957,"jo":958,"Ġmark":959,"Ġworkers":960,"iv":961,"ort":962,"Ġall":963,"Ġflow":964,"Ġbag":965,"Ġsle":966,"Ġbat":967,"Ġfloor":968,"Ġwatches":969,"Ġagain":970,"Ġwooden":971,"ws":972,"Ġfore":973,"ght":974,"Ġrides":975,"ty":976,"Ġcan":977,"Ġpast":978,"Ġri":979,"Ġbasketball":980,"Ġoce":981,"Ġelder":982,"Ġagainst":983,"Ġocean":984,"Ġthis":985,"Ġopen":986,"man":987,"Ġduring":988,"Ġenjo":989,"vered":990,"fe":991,"Ġshow":992,"Ġfr":993,"Ġabout":994,"Ġbright":995,"Ġcle":996,"fit":997,"Ġdri":998,"Ġelderly":999,"ated":1000,"Ġdancing":1001,"ted":1002,"aur":1003,"be":1004,"ade":1005,"Ġdrin":1006,"Ġbusy":1007,"Ġclothing":1008,"Ġoutfit":1009,"Ġcolorful":1010,"ces":1011,"Ġhigh":1012,"aning":1013,"Ġwaiting":1014,"Ġmarket":1015,"Ġsurround":1016,"Ġclimbing":1017,"Ġsmile":1018,"Ġgetting":1019,"very":1020,"Ġhaving":1021,"Ġtrees":1022,"Ġrestaur":1023,"Ġcost":1024,"Ġswimming":1025,"Ġoutdoor":1026,"Ġlight":1027,"Ġthey":1028,"Ġcostum":1029,"Ġmotorcycle":1030,"Ġpass":1031,"ial":1032,"Ġrestaurant":1033,"rella":1034,"Ġve":1035,"Ġumb":1036,"Ġumbrella":1037,"ix":1038,"Ġshirts":1039,"per":1040,"Ġmaking":1041,"Ġhill":1042,"Ġdes":1043,"Ġposing":1044,"Ġinside":1045,"Ġinstr":1046,"Ġinstrum":1047,"Ġhan":1048,"less":1049,"Ġfe":1050,"ruck":1051,"lley":1052,"Ġski":1053,"Ġpol":1054,"Ġcovered":1055,"ol":1056,"Ġbear":1057,"Ġsinging":1058,"Ġtrying":1059,"Ġfence":1060,"Ġmat":1061,"Ġlea":1062,"Ġkit":1063,"Ġpie":1064,"Ġcell":1065,"Ġgr":1066,"Ġsleep":1067,"sc":1068,"ily":1069,"Ġfive":1070,"utting":1071,"Ġbow":1072,"Ġbrick":1073,"Ġart":1074,"je":1075,"Ġice":1076,"Ġline":1077,"ller":1078,"Ġev":1079,"pla":1080,"Ġvery":1081,"Ġbes":1082,"Ġpath":1083,"Ġbig":1084,"vel":1085,"Ġhats":1086,"ny":1087,"Ġkick":1088,"Ġbook":1089,"Ġdi":1090,"vers":1091,"Ġlad":1092,"ron":1093,"Ġboard":1094,"mer":1095,"Ġride":1096,"Ġtowards":1097,"Ġsweater":1098,"Ġsomeone":1099,"Ġind":1100,"ycl":1101,"Ġcow":1102,"Ġcart":1103,"Ġbeside":1104,"ast":1105,"Ġnight":1106,"Ġlake":1107,"Ġme":1108,"Ġhu":1109,"Ġbody":1110,"Ġjo":1111,"chen":1112,"Ġkitchen":1113,"pack":1114,"Ġtruck":1115,"ler":1116,"Ġbik":1117,"Ġsurrounded":1118,"Ġmet":1119,"Ġclothes":1120,"Ġriver":1121,"Ġcellphone":1122,"gra":1123,"cket":1124,"Ġbackpack":1125,"Ġgrassy":1126,"Ġlaying":1127,"Ġpus":1128,"Ġcor":1129,"Ġtr":1130,"Ġoutdoors":1131,"Ġarms":1132,"ched":1133,"Ġbeard":1134,"ition":1135,"Ġcompet":1136,"Ġtrack":1137,"Ġlaugh":1138,"Ġcre":1139,"als":1140,"Ġdrum":1141,"od":1142,"Ġstair":1143,"Ġvest":1144,"Ġothers":1145,"ird":1146,"iz":1147,"ses":1148,"Ġsub":1149,"Ġtank":1150,"Ġtod":1151,"dler":1152,"Ġblo":1153,"ckey":1154,"Ġpiece":1155,"ject":1156,"Ġpainting":1157,"Ġcour":1158,"cor":1159,"ding":1160,"Ġele":1161,"Ġtoddler":1162,"Ġhard":1163,"Ġboot":1164,"Ġtur":1165,"Ġmach":1166,"Ġcolored":1167,"Ġphotogra":1168,"ines":1169,"Ġstep":1170,"we":1171,"Ġbox":1172,"br":1173,"tic":1174,"co":1175,"der":1176,"Ġbrid":1177,"Ġshopping":1178,"Ġpaper":1179,"ffe":1180,"ys":1181,"Ġcont":1182,"ears":1183,"Ġkne":1184,"Ġworker":1185,"Ġtrick":1186,"Ġabove":1187,"erican":1188,"Ġstone":1189,"Ġskirt":1190,"Ġpl":1191,"Ġenjoying":1192,"Ġuniforms":1193,"able":1194,"Ġevent":1195,"Ġsnowy":1196,"Ġafr":1197,"Ġteen":1198,"Ġgather":1199,"ac":1200,"hered":1201,"Ġdoor":1202,"Ġhanging":1203,"uch":1204,"Ġgi":1205,"Ġsnowboard":1206,"Ġmetal":1207,"Ġguys":1208,"ym":1209,"Ġdrinking":1210,"Ġpra":1211,"Ġfam":1212,"Ġready":1213,"Ġfull":1214,"Ġey":1215,"Ġhi":1216,"Ġbre":1217,"Ġpul":1218,"Ġno":1219,"Ġhit":1220,"Ġcount":1221,"Ġwheel":1222,"ich":1223,"Ġhouse":1224,"Ġafter":1225,"ons":1226,"Ġsleeping":1227,"Ġnumb":1228,"Ġpoin":1229,"Ġshoes":1230,"ved":1231,"Ġafrican":1232,"ca":1233,"riend":1234,"Ġadults":1235,"Ġsha":1236,"ank":1237,"Ġtakes":1238,"Ġaway":1239,"Ġcur":1240,"Ġright":1241,"Ġ2":1242,"Ġonto":1243,"ather":1244,"Ġdra":1245,"Ġstud":1246,"Ġvie":1247,"Ġcowbo":1248,"ists":1249,"Ġlike":1250,"Ġgoing":1251,"Ġgathered":1252,"Ġpole":1253,"Ġphone":1254,"Ġrain":1255,"oot":1256,"Ġlap":1257,"Ġrocks":1258,"Ġbridge":1259,"Ġwave":1260,"Ġleap":1261,"ane":1262,"Ġfil":1263,"Ġshou":1264,"Ġdance":1265,"Ġboth":1266,"emp":1267,"Ġsmiles":1268,"Ġfriend":1269,"Ġsky":1270,"Ġfamily":1271,"Ġwe":1272,"ones":1273,"Ġrope":1274,"bble":1275,"ium":1276,"Ġamerican":1277,"Ġgym":1278,"Ġlot":1279,"Ġhockey":1280,"Ġleaning":1281,"Ġsteps":1282,"ates":1283,"Ġwhat":1284,"Ġflowers":1285,"arf":1286,"Ġcatch":1287,"Ġsubway":1288,"Ġcrowded":1289,"Ġshort":1290,"Ġpose":1291,"lic":1292,"Ġconc":1293,"Ġcomput":1294,"Ġleft":1295,"ious":1296,"gging":1297,"Ġfountain":1298,"Ġbet":1299,"Ġclass":1300,"Ġattemp":1301,"elling":1302,"Ġgear":1303,"Ġpreparing":1304,"Ġcowboy":1305,"Ġwet":1306,"ish":1307,"Ġap":1308,"ersey":1309,"Ġwin":1310,"art":1311,"Ġhave":1312,"ement":1313,"Ġflag":1314,"ary":1315,"Ġjersey":1316,"hair":1317,"Ġvo":1318,"Ġshirtless":1319,"Ġdispla":1320,"sel":1321,"Ġhom":1322,"Ġsqu":1323,"Ġsunny":1324,"ier":1325,"Ġwhich":1326,"Ġracing":1327,"Ġcra":1328,"Ġcostume":1329,"Ġdist":1330,"Ġfishing":1331,"Ġstop":1332,"ween":1333,"Ġpub":1334,"Ġopp":1335,"Ġbetween":1336,"ned":1337,"ong":1338,"Ġcarri":1339,"unch":1340,"ime":1341,"Ġconvers":1342,"Ġpract":1343,"Ġwr":1344,"Ġmake":1345,"Ġballo":1346,"iting":1347,"Ġgraff":1348,"Ġgraffit":1349,"ening":1350,"Ġroller":1351,"Ġglass":1352,"Ġchairs":1353,"Ġequ":1354,"Ġview":1355,"aut":1356,"Ġlaughing":1357,"Ġpublic":1358,"Ġgraffiti":1359,"Ġbut":1360,"Ġmachine":1361,"Ġnumber":1362,"Ġgent":1363,"Ġgold":1364,"Ġsetting":1365,"Ġfris":1366,"Ġcorner":1367,"hic":1368,"Ġforest":1369,"Ġvolley":1370,"Ġfrisbe":1371,"Ġbed":1372,"Ġbeaut":1373,"suit":1374,"Ġsil":1375,"Ġinstruments":1376,"ares":1377,"Ġsweatshirt":1378,"Ġplaid":1379,"Ġnew":1380,"Ġdrink":1381,"Ġvolleyball":1382,"av":1383,"Ġcig":1384,"Ġhood":1385,"Ġbottle":1386,"Ġvehic":1387,"Ġrail":1388,"Ġgentle":1389,"Ġfrisbee":1390,"ience":1391,"Ġstairs":1392,"Ġplast":1393,"Ġappears":1394,"Ġbags":1395,"Ġcheck":1396,"Ġadult":1397,"yclist":1398,"Ġpolice":1399,"Ġaud":1400,"Ġste":1401,"du":1402,"iful":1403,"Ġtall":1404,"Ġblow":1405,"Ġbeautiful":1406,"Ġplastic":1407,"Ġcouch":1408,"bor":1409,"Ġed":1410,"rete":1411,"Ġglo":1412,"de":1413,"Ġselling":1414,"Ġramp":1415,"Ġconcrete":1416,"aged":1417,"Ġce":1418,"Ġlist":1419,"Ġkis":1420,"Ġspea":1421,"ric":1422,"cture":1423,"Ġseated":1424,"Ġstat":1425,"ats":1426,"Ġent":1427,"of":1428,"Ġcup":1429,"Ġstro":1430,"Ġbird":1431,"Ġstra":1432,"Ġoffic":1433,"ally":1434,"Ġhome":1435,"Ġscarf":1436,"Ġequip":1437,"Ġmidair":1438,"ber":1439,"shing":1440,"ety":1441,"ring":1442,"Ġequipment":1443,"Ġscen":1444,"Ġal":1445,"Ġcooking":1446,"Ġtake":1447,"ending":1448,"aret":1449,"Ġcomputer":1450,"Ġwoods":1451,"Ġdoes":1452,"Ġcigaret":1453,"Ġputting":1454,"ctor":1455,"Ġslide":1456,"Ġobject":1457,"ug":1458,"hed":1459,"chool":1460,"Ġvar":1461,"Ġpad":1462,"Ġnews":1463,"ps":1464,"Ġedge":1465,"Ġspor":1466,"Ġskateboarder":1467,"Ġfruit":1468,"Ġpushing":1469,"Ġstru":1470,"Ġmusician":1471,"room":1472,"Ġnet":1473,"Ġworks":1474,"Ġmountains":1475,"Ġpictures":1476,"Ġgar":1477,"lin":1478,"ope":1479,"Ġladies":1480,"Ġboots":1481,"Ġmul":1482,"Ġnearby":1483,"Ġtat":1484,"Ġdistance":1485,"Ġschool":1486,"Ġthrowing":1487,"top":1488,"uff":1489,"Ġelect":1490,"Ġjust":1491,"ace":1492,"pping":1493,"els":1494,"Ġwhere":1495,"Ġhot":1496,"Ġfish":1497,"Ġapron":1498,"Ġser":1499,"head":1500,"Ġint":1501,"Ġposes":1502,"Ġrider":1503,"ou":1504,"ony":1505,"Ġbikes":1506,"Ġshovel":1507,"phones":1508,"arm":1509,"Ġchas":1510,"Ġbuildings":1511,"Ġanim":1512,"Ġwinter":1513,"iff":1514,"ical":1515,"Ġpick":1516,"Ġemp":1517,"Ġperforms":1518,"Ġeyes":1519,"Ġaudience":1520,"Ġcigarette":1521,"too":1522,"Ġpit":1523,"Ġplayground":1524,"Ġtattoo":1525,"Ġstation":1526,"Ġcrossing":1527,"Ġcheer":1528,"Ġfall":1529,"Ġhors":1530,"rest":1531,"Ġbucket":1532,"Ġpulling":1533,"Ġtrail":1534,"ert":1535,"Ġnot":1536,"Ġinstrument":1537,"Ġhorses":1538,"let":1539,"iding":1540,"Ġlawn":1541,"pap":1542,"Ġspla":1543,"Ġpres":1544,"Ġvehicle":1545,"Ġpot":1546,"Ġsmoking":1547,"Ġnewspap":1548,"out":1549,"Ġrais":1550,"Ġstatue":1551,"Ġparade":1552,"Ġpainted":1553,"Ġpractic":1554,"Ġres":1555,"Ġleaves":1556,"Ġparty":1557,"Ġsaf":1558,"os":1559,"Ġ3":1560,"Ġfun":1561,"pped":1562,"Ġconcer":1563,"ail":1564,"ins":1565,"ights":1566,"Ġrocky":1567,"ggles":1568,"ini":1569,"upp":1570,"Ġvend":1571,"Ġdriving":1572,"ms":1573,"Ġcleaning":1574,"Ġsix":1575,"Ġkn":1576,"Ġphotograp":1577,"Ġfriends":1578,"Ġite":1579,"Ġyard":1580,"ading":1581,"ork":1582,"ests":1583,"Ġfilled":1584,"Ġlying":1585,"ered":1586,"Ġdisplay":1587,"Ġmother":1588,"fla":1589,"Ġhapp":1590,"Ġcars":1591,"Ġfew":1592,"Ġgiving":1593,"ery":1594,"Ġcream":1595,"Ġmud":1596,"Ġsafety":1597,"Ġcutting":1598,"look":1599,"Ġbeer":1600,"Ġveget":1601,"Ġgentleman":1602,"rent":1603,"Ġroof":1604,"Ġstructure":1605,"Ġblank":1606,"Ġbubble":1607,"Ġgoal":1608,"ven":1609,"Ġmart":1610,"Ġmil":1611,"Ġconcert":1612,"iness":1613,"Ġmakes":1614,"Ġbull":1615,"Ġpile":1616,"irc":1617,"Ġclose":1618,"Ġban":1619,"alle":1620,"az":1621,"Ġmem":1622,"lee":1623,"Ġland":1624,"Ġcla":1625,"Ġdin":1626,"Ġshore":1627,"Ġspect":1628,"Ġplat":1629,"ound":1630,"Ġrela":1631,"aching":1632,"Ġpaint":1633,"Ġgloves":1634,"ond":1635,"Ġear":1636,"Ġdock":1637,"Ġbusiness":1638,"Ġcut":1639,"Ġneck":1640,"ival":1641,"Ġcarries":1642,"Ġblanket":1643,"key":1644,"Ġlin":1645,"Ġrode":1646,"eling":1647,"Ġpost":1648,"Ġmartial":1649,"Ġdire":1650,"Ġshowing":1651,"Ġbreak":1652,"looking":1653,"Ġshoulder":1654,"cher":1655,"Ġonlook":1656,"ike":1657,"na":1658,"ides":1659,"ctive":1660,"ings":1661,"ators":1662,"Ġcourt":1663,"Ġsnowboarder":1664,"Ġreads":1665,"Ġcirc":1666,"lding":1667,"Ġjackets":1668,"Ġped":1669,"Ġform":1670,"Ġdrums":1671,"Ġrodeo":1672,"Ġbare":1673,"Ġdig":1674,"Ġrailing":1675,"Ġnewspaper":1676,"Ġsuits":1677,"Ġsports":1678,"Ġvegetable":1679,"Ġsurfer":1680,"Ġcounter":1681,"Ġqu":1682,"Ġflip":1683,"Ġdrinks":1684,"Ġbowl":1685,"Ġmask":1686,"Ġamong":1687,"Ġcostumes":1688,"ban":1689,"Ġvarious":1690,"ugg":1691,"ater":1692,"Ġvests":1693,"Ġparked":1694,"avy":1695,"ser":1696,"Ġwrest":1697,"Ġbowling":1698,"cting":1699,"Ġmon":1700,"Ġgoggles":1701,"if":1702,"Ġfacing":1703,"Ġgrill":1704,"Ġbunch":1705,"ette":1706,"Ġbiker":1707,"Ġpointing":1708,"Ġfix":1709,"ighting":1710,"ivid":1711,"Ġonlookers":1712,"cl":1713,"Ġdecor":1714,"Ġpracticing":1715,"Ġhar":1716,"Ġdresses":1717,"Ġarts":1718,"Ġspectators":1719,"int":1720,"Ġprepares":1721,"Ġbathing":1722,"Ġvio":1723,"Ġteams":1724,"Ġindian":1725,"Ġgymn":1726,"Ġkay":1727,"Ġtalks":1728,"Ġstudents":1729,"oks":1730,"set":1731,"Ġalley":1732,"Ġfeet":1733,"uck":1734,"Ġwed":1735,"ural":1736,"Ġpart":1737,"Ġlistening":1738,"Ġtent":1739,"Ġflying":1740,"Ġref":1741,"Ġcliff":1742,"Ġscene":1743,"Ġelectric":1744,"Ġswinging":1745,"Ġdiffe":1746,"ige":1747,"lf":1748,"slee":1749,"Ġflags":1750,"Ġdifferent":1751,"Ġath":1752,"Ġim":1753,"Ġput":1754,"Ġtour":1755,"Ġladder":1756,"Ġty":1757,"Ġparking":1758,"ise":1759,"Ġtrun":1760,"Ġvendor":1761,"Ġrelax":1762,"Ġwedding":1763,"Ġtie":1764,"fore":1765,"Ġbra":1766,"Ġwaves":1767,"Ġdesk":1768,"ffee":1769,"nic":1770,"Ġcoffee":1771,"Ġfol":1772,"Ġflower":1773,"self":1774,"Ġtro":1775,"Ġtime":1776,"Ġsurfboard":1777,"bb":1778,"Ġstaring":1779,"Ġcoll":1780,"Ġbefore":1781,"Ġlife":1782,"Ġswe":1783,"Ġshot":1784,"Ġrep":1785,"Ġyounger":1786,"Ġcover":1787,"ely":1788,"Ġprodu":1789,"men":1790,"Ġskateboarding":1791,"Ġspeaking":1792,"cts":1793,"Ġtub":1794,"ush":1795,"lored":1796,"Ġleather":1797,"yclists":1798,"Ġlaptop":1799,"Ġtalk":1800,"Ġindivid":1801,"Ġindividu":1802,"Ġviolin":1803,"Ġphotograph":1804,"Ġsilver":1805,"Ġstroller":1806,"Ġsled":1807,"eth":1808,"Ġleg":1809,"Ġmatch":1810,"Ġempty":1811,"ced":1812,"Ġsort":1813,"Ġleans":1814,"Ġconversation":1815,"mb":1816,"Ġlegs":1817,"Ġkicking":1818,"Ġfing":1819,"Ġscoot":1820,"Ġattire":1821,"Ġblock":1822,"itary":1823,"Ġcement":1824,"ath":1825,"Ġstar":1826,"Ġobser":1827,"Ġforeground":1828,"Ġpr":1829,"cers":1830,"Ġloc":1831,"Ġpurse":1832,"Ġspra":1833,"Ġsold":1834,"Ġsay":1835,"Ġoverlooking":1836,"Ġsame":1837,"Ġitems":1838,"Ġscreen":1839,"Ġskier":1840,"Ġbearded":1841,"Ġleaps":1842,"dge":1843,"Ġexam":1844,"me":1845,"Ġcal":1846,"Ġfur":1847,"Ġtow":1848,"rist":1849,"Ġgun":1850,"ens":1851,"ulp":1852,"Ġcompetition":1853,"Ġclimbs":1854,"Ġbald":1855,"th":1856,"Ġcard":1857,"Ġgard":1858,"Ġsculp":1859,"case":1860,"Ġwriting":1861,"sed":1862,"Ġsmo":1863,"Ġairp":1864,"ession":1865,"Ġanimal":1866,"Ġshad":1867,"eath":1868,"Ġcr":1869,"Ġplace":1870,"Ġbicycles":1871,"Ġoutfits":1872,"Ġkneeling":1873,"Ġattempting":1874,"Ġmilitary":1875,"Ġway":1876,"Ġmed":1877,"Ġgood":1878,"Ġbride":1879,"vert":1880,"Ġgets":1881,"Ġmusical":1882,"Ġmeal":1883,"Ġlined":1884,"ns":1885,"allow":1886,"Ġtables":1887,"Ġsigns":1888,"ous":1889,"Ġteenag":1890,"Ġchrist":1891,"Ġballoon":1892,"Ġsweep":1893,"Ġwears":1894,"Ġgolf":1895,"Ġindo":1896,"urban":1897,"Ġbikini":1898,"ped":1899,"Ġcand":1900,"Ġprot":1901,"Ġgrocer":1902,"Ġtries":1903,"Ġartist":1904,"Ġphotographer":1905,"ken":1906,"ton":1907,"Ġstreets":1908,"estri":1909,"Ġchasing":1910,"ied":1911,"Ġsite":1912,"Ġchines":1913,"cu":1914,"cord":1915,"ticip":1916,"Ġchinese":1917,"dition":1918,"ger":1919,"tor":1920,"Ġgre":1921,"Ġvegetables":1922,"Ġtire":1923,"Ġclown":1924,"Ġgarb":1925,"mas":1926,"Ġbrun":1927,"Ġsurfing":1928,"Ġcele":1929,"Ġplatform":1930,"nel":1931,"Ġbur":1932,"Ġbel":1933,"arate":1934,"Ġsings":1935,"Ġyo":1936,"ffic":1937,"Ġbalan":1938,"Ġeng":1939,"Ġhelmets":1940,"Ġgathering":1941,"Ġcountry":1942,"Ġkissing":1943,"Ġsays":1944,"Ġfighting":1945,"Ġham":1946,"Ġprote":1947,"Ġgymnast":1948,"ho":1949,"Ġwra":1950,"Ġfather":1951,"ips":1952,"Ġhik":1953,"bs":1954,"mo":1955,"ness":1956,"Ġpull":1957,"Ġmusicians":1958,"Ġcelebr":1959,"Ġtool":1960,"ape":1961,"Ġsunset":1962,"uddle":1963,"Ġcontain":1964,"Ġblowing":1965,"ners":1966,"Ġmeat":1967,"lders":1968,"Ġfaces":1969,"Ġchristmas":1970,"Ġsea":1971,"ized":1972,"Ġbrunette":1973,"ached":1974,"Ġadvert":1975,"read":1976,"Ġincl":1977,"Ġcas":1978,"Ġvide":1979,"Ġwalkway":1980,"aff":1981,"Ġmir":1982,"Ġtraffic":1983,"Ġcake":1984,"Ġclassroom":1985,"ib":1986,"Ġvis":1987,"Ġalone":1988,"Ġuses":1989,"Ġballoons":1990,"Ġwell":1991,"Ġthrow":1992,"Ġcoming":1993,"lesc":1994,"Ġsandy":1995,"Ġresting":1996,"Ġtrunks":1997,"Ġgarden":1998,"osing":1999,"Ġ1":2000,"Ġrow":2001,"Ġledge":2002,"Ġtracks":2003,"Ġbubbles":2004,"Ġscooter":2005,"Ġadvertis":2006,"Ġdiving":2007,"Ġhuge":2008,"Ġmirro":2009,"Ġpier":2010,"Ġhoop":2011,"Ġseem":2012,"Ġstream":2013,"Ġupside":2014,"Ġmales":2015,"Ġathle":2016,"Ġcollar":2017,"athon":2018,"foot":2019,"pers":2020,"Ġwooded":2021,"Ġparticip":2022,"Ġclear":2023,"Ġcompeting":2024,"Ġhiking":2025,"Ġmarathon":2026,"Ġcourse":2027,"Ġteenage":2028,"Ġfollow":2029,"ki":2030,"ining":2031,"Ġsto":2032,"ular":2033,"Ġcafe":2034,"Ġswings":2035,"Ġshows":2036,"Ġpresent":2037,"aches":2038,"vice":2039,"Ġson":2040,"Ġnat":2041,"Ġtrash":2042,"Ġexp":2043,"ia":2044,"Ġ;":2045,"Ġcust":2046,"Ġrug":2047,"Ġproject":2048,"Ġcano":2049,"Ġpedestri":2050,"Ġrefle":2051,"Ġfest":2052,"Ġcrou":2053,"Ġwaving":2054,"Ġprof":2055,"Ġbath":2056,"Ġdirection":2057,"ditional":2058,"Ġhelping":2059,"Ġbarefoot":2060,"Ġpupp":2061,"Ġtown":2062,"Ġring":2063,"Ġchef":2064,"za":2065,"Ġurban":2066,"Ġda":2067,"Ġplate":2068,"Ġlights":2069,"Ġbrightly":2070,"Ġbooth":2071,"Ġofficer":2072,"Ġcheerle":2073,"ics":2074,"Ġstret":2075,"Ġpassing":2076,"Ġopposing":2077,"Ġheadphones":2078,"Ġskiing":2079,"Ġstraw":2080,"Ġmirror":2081,"Ġchain":2082,"Ġtraditional":2083,"Ġsliding":2084,"Ġi":2085,"Ġkarate":2086,"Ġsandals":2087,"Ġchur":2088,"Ġlog":2089,"Ġcolle":2090,"Ġheld":2091,"Ġmicrosc":2092,"Ġtype":2093,"Ġcustom":2094,"Ġstad":2095,"chair":2096,"Ġlab":2097,"Ġleaping":2098,"ges":2099,"Ġslo":2100,"Ġmade":2101,"ering":2102,"row":2103,"Ġsculpture":2104,"Ġstadium":2105,"Ġass":2106,"Ġfight":2107,"ental":2108,"tail":2109,"Ġstuff":2110,"Ġtou":2111,"ends":2112,"Ġoper":2113,"Ġmultic":2114,"Ġtun":2115,"bers":2116,"Ġshallow":2117,"Ġtack":2118,"Ġskating":2119,"Ġperformance":2120,"Ġsquare":2121,"Ġinclud":2122,"Ġchurch":2123,"Ġwaters":2124,"Ġpack":2125,"Ġwaits":2126,"aster":2127,"Ġdoorway":2128,"Ġmultico":2129,"Ġhappy":2130,"Ġseen":2131,"Ġcent":2132,"Ġhal":2133,"Ġhur":2134,"Ġmag":2135,"Ġmembers":2136,"Ġvideo":2137,"Ġori":2138,"Ġeat":2139,"Ġrepair":2140,"Ġhole":2141,"Ġkha":2142,"Ġshoulders":2143,"band":2144,"tom":2145,"Ġz":2146,"Ġfair":2147,"Ġseat":2148,"Ġtoys":2149,"oc":2150,"ese":2151,"Ġlow":2152,"Ġwashing":2153,"Ġenjoy":2154,"Ġturn":2155,"lling":2156,"Ġhall":2157,"Ġstun":2158,"Ġoffice":2159,"Ġguard":2160,"Ġdirty":2161,"Ġcoats":2162,"Ġfixing":2163,"Ġballs":2164,"ral":2165,"alls":2166,"Ġtelesc":2167,"Ġdigging":2168,"Ġthese":2169,"Ġsee":2170,"Ġwas":2171,"acher":2172,"Ġkayak":2173,"Ġgian":2174,"Ġfen":2175,"Ġstring":2176,"Ġtramp":2177,"Ġbottom":2178,"Ġwindows":2179,"Ġsticks":2180,"ales":2181,"Ġthird":2182,"Ġdancers":2183,"Ġattached":2184,"Ġhugging":2185,"Ġbelow":2186,"Ġsec":2187,"Ġaccord":2188,"Ġcircle":2189,"cuss":2190,"Ġcanoe":2191,"Ġaccordion":2192,"Ġbooks":2193,"Ġkind":2194,"Ġpret":2195,"Ġdeck":2196,"Ġumbrellas":2197,"Ġleash":2198,"Ġpond":2199,"Ġrunner":2200,"Ġlead":2201,"oline":2202,"Ġtrans":2203,"Ġmulticolored":2204,"Ġbeige":2205,"ipe":2206,"Ġdesert":2207,"Ġmakeup":2208,"Ġcheerlead":2209,"Ġ4":2210,"Ġsell":2211,"leep":2212,"Ġtong":2213,"ught":2214,"Ġrunners":2215,"Ġthrows":2216,"Ġsus":2217,"ets":2218,"Ġcook":2219,"Ġasleep":2220,"Ġlaund":2221,"Ġperformer":2222,"Ġmult":2223,"Ġgrocery":2224,"Ġgiant":2225,"work":2226,"Ġmoving":2227,"Ġnose":2228,"Ġtrampoline":2229,"ient":2230,"que":2231,"so":2232,"Ġcrying":2233,"Ġcyclist":2234,"Ġmicroscope":2235,"fts":2236,"zz":2237,"Ġreaching":2238,"Ġhow":2239,"Ġpair":2240,"allen":2241,"Ġter":2242,"Ġpan":2243,"Ġscaff":2244,"Ġswimsuit":2245,"Ġcatching":2246,"Ġdrawing":2247,"Ġsusp":2248,"Ġscaffo":2249,"Ġround":2250,"Ġwetsuit":2251,"Ġes":2252,"Ġspot":2253,"Ġdeep":2254,"Ġdinner":2255,"Ġrelaxing":2256,"Ġ5":2257,"Ġlays":2258,"Ġhimself":2259,"Ġproduce":2260,"Ġprofession":2261,"Ġtelescope":2262,"light":2263,"yard":2264,"yle":2265,"ute":2266,"Ġsinger":2267,"Ġtricks":2268,"Ġjogging":2269,"Ġhoodie":2270,"sleeved":2271,"Ġinfla":2272,"ung":2273,"Ġvan":2274,"Ġdry":2275,"ended":2276,"Ġcloth":2277,"Ġoriental":2278,"inned":2279,"Ġfin":2280,"Ġfra":2281,"wards":2282,"Ġindividuals":2283,"Ġemb":2284,"Ġwaterf":2285,"Ġsweeping":2286,"bla":2287,"neath":2288,"ual":2289,"Ġact":2290,"Ġunderneath":2291,"Ġattempts":2292,"Ġgolden":2293,"Ġmust":2294,"cking":2295,"stac":2296,"Ġcatches":2297,"Ġobstac":2298,"Ġinf":2299,"Ġmom":2300,"Ġfeat":2301,"Ġstr":2302,"Ġatop":2303,"Ġclosed":2304,"Ġheads":2305,"ages":2306,"Ġdiscuss":2307,"Ġmatching":2308,"fight":2309,"Ġend":2310,"orch":2311,"Ġret":2312,"Ġcol":2313,"Ġheavy":2314,"Ġdem":2315,"Ġcho":2316,"Ġpicnic":2317,"Ġbicyclist":2318,"fully":2319,"Ġspeed":2320,"Ġpedestrians":2321,"Ġcenter":2322,"cy":2323,"ds":2324,"Ġsax":2325,"Ġeye":2326,"Ġofficers":2327,"Ġpaddle":2328,"Ġfalling":2329,"Ġfestival":2330,"com":2331,"Ġwine":2332,"Ġmix":2333,"Ġdon":2334,"Ġext":2335,"Ġteeth":2336,"Ġunderw":2337,"Ġslee":2338,"Ġpulled":2339,"Ġharness":2340,"Ġstuffed":2341,"back":2342,"road":2343,"Ġracket":2344,"Ġmost":2345,"Ġclean":2346,"scape":2347,"Ġplants":2348,"Ġrollerbla":2349,"Ġhalf":2350,"Ġfallen":2351,"ator":2352,"Ġdevice":2353,"Ġpushes":2354,"Ġspray":2355,"Ġkhaki":2356,"hone":2357,"Ġtile":2358,"arrow":2359,"ughter":2360,"Ġwide":2361,"Ġcamou":2362,"Ġbran":2363,"Ġappear":2364,"Ġsplashing":2365,"Ġmuddy":2366,"Ġdecorated":2367,"Ġcamoufla":2368,"cas":2369,"Ġkey":2370,"Ġcri":2371,"erman":2372,"Ġfan":2373,"Ġdun":2374,"Ġgroom":2375,"Ġgoes":2376,"Ġfirefight":2377,"Ġhula":2378,"Ġshadow":2379,"gers":2380,"ible":2381,"ital":2382,"Ġmarching":2383,"Ġalso":2384,"Ġincluding":2385,"Ġins":2386,"Ġmop":2387,"Ġden":2388,"Ġlone":2389,"Ġcarn":2390,"Ġcane":2391,"dling":2392,"lane":2393,"pes":2394,"whe":2395,"Ġfre":2396,"atting":2397,"Ġspr":2398,"Ġmove":2399,"Ġbalc":2400,"Ġcast":2401,"Ġexc":2402,"Ġcurly":2403,"Ġsum":2404,"Ġcold":2405,"Ġeats":2406,"Ġdances":2407,"Ġappro":2408,"stand":2409,"Ġtaken":2410,"Ġboats":2411,"Ġcovering":2412,"ret":2413,"Ġfig":2414,"Ġwhil":2415,"Ġlots":2416,"Ġjean":2417,"Ġcrosswalk":2418,"illing":2419,"Ġrob":2420,"Ġhere":2421,"lers":2422,"Ġstunt":2423,"Ġcarnival":2424,"Ġwhilst":2425,"res":2426,"Ġport":2427,"Ġbackyard":2428,"Ġposs":2429,"Ġrac":2430,"Ġindoor":2431,"Ġobstacle":2432,"Ġcamouflage":2433,"uzz":2434,"Ġchest":2435,"Ġfemales":2436,"Ġbutton":2437,"Ġknit":2438,"Ġfinger":2439,"Ġtongue":2440,"Ġrefe":2441,"Ġlift":2442,"Ġbandan":2443,"Ġmeet":2444,"Ġblouse":2445,"Ġpoints":2446,"Ġspeaks":2447,"Ġwrapped":2448,"Ġdaughter":2449,"inning":2450,"Ġwarm":2451,"ront":2452,"ids":2453,"ower":2454,"Ġseven":2455,"Ġtele":2456,"Ġcurb":2457,"Ġhooded":2458,"Ġprotest":2459,"Ġsaxop":2460,"ase":2461,"med":2462,"table":2463,"ident":2464,"icycle":2465,"Ġtunnel":2466,"Ġcheerleaders":2467,"Ġkeyboard":2468,"fting":2469,"go":2470,"gon":2471,"Ġwire":2472,"ster":2473,"Ġflies":2474,"Ġpolic":2475,"Ġkicks":2476,"Ġchecking":2477,"ertain":2478,"Ġairplane":2479,"Ġteenagers":2480,"dress":2481,"Ġmural":2482,"alm":2483,"Ġrobe":2484,"vement":2485,"Ġpouring":2486,"skinned":2487,"Ġopening":2488,"Ġwheelchair":2489,"Ġrailroad":2490,"Ġpicking":2491,"Ġdenim":2492,"Ġstack":2493,"Ġrub":2494,"Ġjugg":2495,"Ġhelp":2496,"Ġgives":2497,"Ġentertain":2498,"Ġlocal":2499,"Ġhurdle":2500,"iers":2501,"Ġnice":2502,"Ġpolo":2503,"Ġrugby":2504,"ls":2505,"ured":2506,"Ġbm":2507,"Ġpian":2508,"Ġpuddle":2509,"iple":2510,"Ġprofessional":2511,"Ġsupp":2512,"ang":2513,"Ġnap":2514,"Ġpavement":2515,"Ġmultiple":2516,"Ġbalcony":2517,"cut":2518,"Ġfans":2519,"Ġshoo":2520,"Ġhose":2521,"Ġbever":2522,"Ġsoft":2523,"Ġbrus":2524,"Ġbarbe":2525,"Ġslides":2526,"Ġmotorcycles":2527,"Ġpasses":2528,"Ġsleeps":2529,"place":2530,"Ġhitting":2531,"Ġhammer":2532,"Ġinfant":2533,"pt":2534,"vie":2535,"Ġpen":2536,"Ġpet":2537,"Ġmess":2538,"Ġrolling":2539,"Ġguitars":2540,"Ġcolors":2541,"Ġbandanna":2542,"Ġpolicem":2543,"Ġclimber":2544,"Ġpassen":2545,"Ġpresentation":2546,"line":2547,"Ġstool":2548,"Ġnavy":2549,"Ġpaved":2550,"Ġadj":2551,"Ġsurface":2552,"Ġfigure":2553,"Ġpony":2554,"Ġonly":2555,"Ġbeam":2556,"Ġknee":2557,"Ġprotective":2558,"sp":2559,"Ġfarm":2560,"Ġcarp":2561,"Ġtravel":2562,"Ġjumpsuit":2563,"Ġmotorb":2564,"Ġdrives":2565,"Ġbalancing":2566,"Ġtouching":2567,"Ġinspe":2568,"Ġpiano":2569,"Ġshooting":2570,"Ġoveralls":2571,"Ġshoe":2572,"quet":2573,"Ġliving":2574,"Ġraised":2575,"Ġseems":2576,"ife":2577,"ilt":2578,"Ġlaundry":2579,"Ġke":2580,"Ġpig":2581,"ars":2582,"Ġpeace":2583,"Ġpitcher":2584,"Ġwrestling":2585,"wk":2586,"Ġsim":2587,"Ġprepare":2588,"Ġrollersk":2589,"aking":2590,"udy":2591,"ina":2592,"Ġgaz":2593,"Ġbou":2594,"Ġlugg":2595,"illow":2596,"Ġsport":2597,"Ġfabr":2598,"Ġlandscape":2599,"Ġslope":2600,"Ġinflatable":2601,"Ġluggage":2602,"Ġinter":2603,"ited":2604,"Ġdust":2605,"Ġdoll":2606,"Ġimage":2607,"Ġputs":2608,"Ġbmx":2609,"its":2610,"Ġmer":2611,"Ġpos":2612,"Ġpoles":2613,"Ġskis":2614,"Ġsewing":2615,"Ġswims":2616,"Ġwaterfall":2617,"Ġdemon":2618,"erial":2619,"illa":2620,"lymp":2621,"Ġwalls":2622,"Ġamus":2623,"Ġneckla":2624,"aw":2625,"Ġolymp":2626,"itor":2627,"Ġgate":2628,"Ġfir":2629,"Ġredhead":2630,"ently":2631,"Ġpapers":2632,"Ġmod":2633,"Ġfloating":2634,"ustic":2635,"Ġenjoys":2636,"Ġdesc":2637,"Ġmagaz":2638,"Ġreferee":2639,"Ġdemonstr":2640,"Ġboun":2641,"Ġtho":2642,"Ġdancer":2643,"ggy":2644,"Ġsplas":2645,"Ġpulls":2646,"Ġscaffolding":2647,"ipping":2648,"Ġfar":2649,"Ġhay":2650,"Ġteamm":2651,"aked":2652,"artment":2653,"Ġoppon":2654,"Ġoppos":2655,"Ġgoalie":2656,"Ġpipe":2657,"Ġcone":2658,"Ġship":2659,"Ġyork":2660,"Ġchop":2661,"ention":2662,"Ġtractor":2663,"aped":2664,"Ġclub":2665,"Ġdesign":2666,"Ġcheckered":2667,"Ġsmoke":2668,"Ġgoods":2669,"Ġembra":2670,"jam":2671,"oes":2672,"ult":2673,"Ġpajam":2674,"Ġexer":2675,"Ġgrind":2676,"Ġshaving":2677,"Ġbirds":2678,"Ġbanner":2679,"Ġgarbage":2680,"bile":2681,"eds":2682,"Ġreaches":2683,"Ġcobble":2684,"Ġpaints":2685,"Ġkiss":2686,"bow":2687,"cial":2688,"fa":2689,"ka":2690,"Ġpop":2691,"Ġwithout":2692,"Ġrece":2693,"Ġriders":2694,"akers":2695,"Ġstaircase":2696,"covered":2697,"Ġexerc":2698,"wa":2699,"Ġsale":2700,"erse":2701,"Ġbeg":2702,"uses":2703,"Ġraft":2704,"Ġswor":2705,"Ġfloral":2706,"Ġcustomers":2707,"Ġtransp":2708,"Ġsaxophone":2709,"Ġfabric":2710,"Ġown":2711,"rem":2712,"ither":2713,"Ġguitarist":2714,"Ġlies":2715,"cala":2716,"Ġbelt":2717,"Ġescala":2718,"Ġjuggling":2719,"Ġposition":2720,"ab":2721,"Ġbending":2722,"Ġcyclists":2723,"Ġtoss":2724,"Ġarmy":2725,"Ġhiker":2726,"Ġfresh":2727,"ache":2728,"ara":2729,"Ġjap":2730,"Ġmoves":2731,"anta":2732,"Ġsail":2733,"Ġdriver":2734,"Ġhangs":2735,"Ġplane":2736,"Ġsteep":2737,"Ġfunny":2738,"Ġsoldier":2739,"Ġexamining":2740,"Ġjapan":2741,"Ġtu":2742,"rop":2743,"Ġstares":2744,"Ġarena":2745,"Ġloun":2746,"Ġeither":2747,"Ġthrown":2748,"Ġfast":2749,"Ġthemsel":2750,"Ġsheet":2751,"Ġcrew":2752,"Ġconversing":2753,"Ġcloseup":2754,"Ġyouth":2755,"Ġopposite":2756,"Ġthemselves":2757,"Ġpillow":2758,"rack":2759,"Ġteacher":2760,"Ġplant":2761,"sleeve":2762,"Ġpuppy":2763,"dium":2764,"Ġears":2765,"Ġchalk":2766,"Ġperformers":2767,"Ġpatter":2768,"Ġforeign":2769,"Ġtrump":2770,"Ġsummer":2771,"Ġpin":2772,"Ġdel":2773,"Ġshoot":2774,"Ġdef":2775,"Ġcontro":2776,"Ġshoveling":2777,"Ġtube":2778,"ten":2779,"Ġel":2780,"Ġaut":2781,"Ġpodium":2782,"Ġcamp":2783,"Ġbicyclists":2784,"Ġappl":2785,"Ġboxes":2786,"Ġbread":2787,"house":2788,"front":2789,"hound":2790,"pan":2791,"Ġbill":2792,"Ġshade":2793,"Ġfoc":2794,"Ġneon":2795,"Ġbiking":2796,"Ġcloudy":2797,"Ġcomple":2798,"Ġathletic":2799,"Ġsup":2800,"Ġsanta":2801,"Ġbent":2802,"Ġrec":2803,"Ġlunch":2804,"cted":2805,"shirts":2806,"Ġribb":2807,"Ġgrand":2808,"Ġdrummer":2809,"Ġjerseys":2810,"Ġwrit":2811,"Ġserving":2812,"Ġsprink":2813,"don":2814,"Ġtrip":2815,"Ġgl":2816,"Ġsne":2817,"Ġfloat":2818,"Ġsurrounding":2819,"Ġshaking":2820,"Ġanimals":2821,"Ġformal":2822,"Ġfingers":2823,"Ġcandy":2824,"Ġmustache":2825,"Ġrobes":2826,"Ġracet":2827,"clo":2828,"ues":2829,"yhound":2830,"inery":2831,"Ġeaster":2832,"oney":2833,"Ġsnack":2834,"Ġaco":2835,"Ġpolka":2836,"Ġjockey":2837,"Ġblocks":2838,"Ġgreyhound":2839,"Ġnative":2840,"Ġunderwater":2841,"Ġsleeve":2842,"Ġpajamas":2843,"Ġracetrack":2844,"Ġporch":2845,"Ġpalm":2846,"Ġlet":2847,"Ġcau":2848,"Ġsheep":2849,"Ġtourists":2850,"Ġtowel":2851,"Ġcontainer":2852,"Ġacoustic":2853,"land":2854,"ma":2855,"mers":2856,"Ġyou":2857,"Ġbucking":2858,"Ġbroom":2859,"Ġcaught":2860,"Ġmachinery":2861,"Ġbottles":2862,"Ġsoldiers":2863,"bat":2864,"eum":2865,"time":2866,"Ġmoney":2867,"Ġlane":2868,"Ġlay":2869,"Ġherself":2870,"Ġshown":2871,"Ġfisher":2872,"Ġescalator":2873,"ga":2874,"vis":2875,"Ġ(":2876,"Ġges":2877,"Ġstri":2878,"eter":2879,"Ġheels":2880,"Ġwagon":2881,"Ġjew":2882,"Ġuse":2883,"Ġmuseum":2884,"Ġpractice":2885,"Ġchases":2886,"Ġhikers":2887,"Ġsuspended":2888,"Ġcaucas":2889,"Ġgesture":2890,"Ġ)":2891,"Ġpige":2892,"Ġrout":2893,"Ġcones":2894,"Ġheadband":2895,"Ġhaircut":2896,"Ġcomm":2897,"Ġliqu":2898,"Ġsticking":2899,"Ġmarketplace":2900,"Ġpieces":2901,"Ġbackpacks":2902,"Ġtattoos":2903,"Ġamusement":2904,"Ġfirst":2905,"Ġcaucasian":2906,"cue":2907,"hill":2908,"iny":2909,"Ġbin":2910,"Ġpuck":2911,"Ġcare":2912,"Ġthumb":2913,"Ġhosp":2914,"Ġbackwards":2915,"Ġorder":2916,"Ġcloud":2917,"Ġarch":2918,"Ġfiret":2919,"Ġdrive":2920,"Ġinterse":2921,"Ġbarbecue":2922,"Ġcarpet":2923,"Ġmotorbike":2924,"Ġhospital":2925,"Ġintersection":2926,"oon":2927,"Ġdep":2928,"Ġju":2929,"Ġbass":2930,"tered":2931,"Ġflight":2932,"Ġobserving":2933,"Ġprint":2934,"Ġsoftball":2935,"Ġponytail":2936,"Ġtight":2937,"Ġstor":2938,"Ġstyle":2939,"amp":2940,"Ġswimmer":2941,"Ġhallway":2942,"Ġtrumpet":2943,"ift":2944,"Ġtry":2945,"Ġpiz":2946,"Ġload":2947,"boat":2948,"Ġsocks":2949,"Ġleaf":2950,"Ġbikers":2951,"Ġhomeless":2952,"Ġpaddling":2953,"Ġhappily":2954,"Ġmember":2955,"zer":2956,"Ġtar":2957,"roon":2958,"Ġgerman":2959,"aller":2960,"Ġnarrow":2961,"Ġroll":2962,"rier":2963,"Ġmaroon":2964,"ations":2965,"hawk":2966,"Ġbars":2967,"jects":2968,"Ġlaughs":2969,"Ġraising":2970,"Ġindividual":2971,"Ġtools":2972,"Ġvisible":2973,"Ġcollege":2974,"Ġframe":2975,"Ġjapanese":2976,"Ġwar":2977,"Ġbun":2978,"Ġthings":2979,"town":2980,"shion":2981,"Ġscub":2982,"Ġathlete":2983,"Ġparticipating":2984,"Ġexcited":2985,"Ġmeeting":2986,"ech":2987,"Ġwild":2988,"Ġpower":2989,"Ġmall":2990,"Ġfly":2991,"Ġlamp":2992,"gged":2993,"Ġboxing":2994,"Ġskirts":2995,"Ġopponent":2996,"Ġscuba":2997,"dd":2998,"day":2999,"Ġplaza":3000,"stone":3001,"Ġchick":3002,"Ġtops":3003,"Ġheadsc":3004,"Ġbenches":3005,"Ġamid":3006,"Ġrests":3007,"Ġposter":3008,"Ġcelebrating":3009,"Ġmodel":3010,"ilo":3011,"Ġmis":3012,"Ġgas":3013,"Ġdowntown":3014,"Ġbacks":3015,"Ġsets":3016,"Ġflowered":3017,"Ġsnowboarding":3018,"borne":3019,"Ġteenager":3020,"Ġretri":3021,"like":3022,"Ġweat":3023,"Ġmound":3024,"stra":3025,"Ġtax":3026,"Ġvac":3027,"Ġorn":3028,"Ġairborne":3029,"Ġhelps":3030,"Ġparach":3031,"Ġkneels":3032,"Ġcerem":3033,"Ġairport":3034,"Ġadvertisement":3035,"Ġbeverage":3036,"Ġnecklace":3037,"Ġredheaded":3038,"Ġsneakers":3039,"Ġroutine":3040,"ye":3041,"Ġsu":3042,"Ġpun":3043,"Ġpump":3044,"Ġfree":3045,"ipes":3046,"Ġspeech":3047,"Ġfeed":3048,"Ġcomputers":3049,"Ġtransport":3050,"Ġfiretruck":3051,"hou":3052,"Ġthin":3053,"ions":3054,"Ġleading":3055,"Ġvilla":3056,"rench":3057,"Ġhandstand":3058,"Ġcatcher":3059,"Ġpatio":3060,"Ġspeak":3061,"Ġcrosses":3062,"Ġcarriage":3063,"Ġfirefighters":3064,"Ġretrie":3065,"Ġahead":3066,"Ġegg":3067,"Ġmohawk":3068,"Ġcaps":3069,"Ġgrilling":3070,"Ġeleph":3071,"Ġsquatting":3072,"Ġsilhou":3073,"ibly":3074,"Ġfenced":3075,"Ġfocus":3076,"Ġsy":3077,"Ġblur":3078,"Ġspace":3079,"Ġstripes":3080,"Ġgentlemen":3081,"Ġreflective":3082,"Ġsells":3083,"cess":3084,"hood":3085,"Ġnaked":3086,"Ġbuying":3087,"Ġmotoc":3088,"Ġbarrel":3089,"Ġelectron":3090,"Ġprin":3091,"Ġmotocross":3092,"Ġmini":3093,"Ġcree":3094,"Ġlick":3095,"Ġteal":3096,"ender":3097,"tery":3098,"Ġbaskets":3099,"Ġmotorcyclist":3100,"Ġcorn":3101,"colored":3102,"Ġpitch":3103,"Ġoperating":3104,"Ġbranch":3105,"Ġcobblestone":3106,"boo":3107,"Ġrink":3108,"Ġbeen":3109,"Ġgravel":3110,"box":3111,"Ġneigh":3112,"Ġmarri":3113,"Ġdish":3114,"tyard":3115,"Ġhang":3116,"Ġevening":3117,"Ġcourtyard":3118,"Ġstudent":3119,"Ġcheering":3120,"Ġindoors":3121,"Ġpossibly":3122,"flo":3123,"lit":3124,"Ġaction":3125,"Ġble":3126,"Ġbul":3127,"Ġspar":3128,"ister":3129,"Ġintera":3130,"Ġexpress":3131,"Ġpoliceman":3132,"Ġkeep":3133,"Ġsword":3134,"min":3135,"Ġdim":3136,"iler":3137,"usk":3138,"Ġforward":3139,"Ġchee":3140,"Ġbalding":3141,"Ġpatient":3142,"Ġboardwalk":3143,"Ġwelding":3144,"Ġsmokes":3145,"Ġrepairing":3146,"Ġmostly":3147,"Ġbrushing":3148,"Ġmagazine":3149,"esting":3150,"ilar":3151,"ility":3152,"Ġfold":3153,"Ġracer":3154,"Ġbalance":3155,"born":3156,"Ġentr":3157,"uffy":3158,"ethnic":3159,"Ġchoir":3160,"Ġeastern":3161,"Ġneighbor":3162,"Ġethnic":3163,"Ġbank":3164,"erby":3165,"iss":3166,"Ġdread":3167,"ature":3168,"Ġoutst":3169,"Ġsmaller":3170,"Ġmap":3171,"Ġspinning":3172,"Ġcab":3173,"Ġbarber":3174,"Ġsaw":3175,"Ġrainbow":3176,"Ġblows":3177,"ption":3178,"Ġsimilar":3179,"Ġpizza":3180,"aks":3181,"eled":3182,"Ġbiting":3183,"Ġeight":3184,"Ġemer":3185,"Ġorche":3186,"Ġtray":3187,"Ġtee":3188,"Ġgown":3189,"Ġlibr":3190,"Ġskateboards":3191,"Ġnewborn":3192,"Ġsporting":3193,"Ġgarage":3194,"Ġtied":3195,"cked":3196,"Ġevery":3197,"Ġcarving":3198,"Ġcarry":3199,"Ġfolding":3200,"Ġcondu":3201,"Ġspread":3202,"Ġcompan":3203,"Ġattention":3204,"Ġcompete":3205,"Ġitem":3206,"Ġstrange":3207,"Ġcricket":3208,"Ġsleeveless":3209,"Ġweather":3210,"Ġneighborhood":3211,"pher":3212,"vol":3213,"Ġdump":3214,"Ġtag":3215,"Ġsofa":3216,"Ġbrush":3217,"Ġsingle":3218,"Ġobjects":3219,"Ġplan":3220,"Ġhits":3221,"Ġcolla":3222,"Ġentrance":3223,"da":3224,"gan":3225,"ially":3226,"ze":3227,"Ġinstru":3228,"Ġgam":3229,"aling":3230,"Ġscru":3231,"Ġcrossed":3232,"Ġmaterial":3233,"Ġjob":3234,"Ġdisplaying":3235,"letes":3236,"Ġmedical":3237,"Ġorchestra":3238,"Ġmuzz":3239,"isting":3240,"ished":3241,"rain":3242,"Ġlines":3243,"stick":3244,"Ġrowing":3245,"Ġbackd":3246,"Ġskin":3247,"down":3248,"Ġballet":3249,"Ġknees":3250,"Ġstroll":3251,"Ġhotdo":3252,"Ġintently":3253,"Ġcards":3254,"Ġcrane":3255,"Ġstove":3256,"Ġpigeons":3257,"tub":3258,"Ġ!":3259,"Ġif":3260,"Ġshaped":3261,"ica":3262,"Ġnur":3263,"Ġcons":3264,"Ġstudio":3265,"Ġwea":3266,"Ġraises":3267,"Ġgreat":3268,"Ġbathroom":3269,"Ġsecond":3270,"Ġsplashes":3271,"Ġlibrary":3272,"hib":3273,"ti":3274,"tes":3275,"Ġhum":3276,"Ġstart":3277,"Ġrel":3278,"Ġrough":3279,"Ġheart":3280,"Ġskates":3281,"rents":3282,"Ġbushes":3283,"Ġlifting":3284,"Ġuniformed":3285,"Ġmicrophones":3286,"Ġturned":3287,"Ġvehicles":3288,"Ġnote":3289,"Ġamongst":3290,"Ġrubber":3291,"Ġpassengers":3292,"Ġsuper":3293,"Ġliquid":3294,"ker":3295,"Ġ-":3296,"Ġtents":3297,"Ġsong":3298,"Ġbean":3299,"rence":3300,"Ġsocial":3301,"Ġadm":3302,"Ġphotos":3303,"Ġexhib":3304,"cola":3305,"Ġwheels":3306,"Ġ20":3307,"Ġfruits":3308,"Ġemplo":3309,"Ġguns":3310,"Ġcardboard":3311,"Ġcrouches":3312,"Ġcreek":3313,"Ġoutstret":3314,"pa":3315,"uro":3316,"Ġsharing":3317,"irth":3318,"urity":3319,"Ġskater":3320,"Ġconfe":3321,"Ġwaist":3322,"Ġballer":3323,"Ġshepher":3324,"Ġceiling":3325,"Ġknife":3326,"Ġtackle":3327,"Ġcastle":3328,"Ġheadscarf":3329,"Ġfeeding":3330,"Ġoutstretched":3331,"dan":3332,"Ġwings":3333,"Ġbund":3334,"Ġbirth":3335,"Ġpri":3336,"Ġru":3337,"Ġrange":3338,"Ġhanding":3339,"Ġunicycle":3340,"Ġstops":3341,"Ġbuckets":3342,"Ġformation":3343,"Ġengine":3344,"Ġsecurity":3345,"Ġribbon":3346,"Ġtaxi":3347,"Ġconference":3348,"Ġtv":3349,"Ġsla":3350,"Ġsink":3351,"Ġpill":3352,"wning":3353,"Ġjet":3354,"Ġwatched":3355,"Ġfashion":3356,"ills":3357,"Ġslight":3358,"Ġfiremen":3359,"Ġattempt":3360,"Ġstretching":3361,"Ġemploye":3362,"can":3363,"des":3364,"ior":3365,"Ġreg":3366,"Ġlon":3367,"Ġcoach":3368,"umn":3369,"Ġropes":3370,"ycling":3371,"Ġsurg":3372,"Ġdishes":3373,"ively":3374,"Ġbagp":3375,"Ġleaving":3376,"Ġstopped":3377,"Ġphotographs":3378,"Ġfisherman":3379,"Ġtransportation":3380,"Ġbirthday":3381,"Ġwake":3382,"Ġswimmers":3383,"Ġsandw":3384,"Ġapple":3385,"Ġstorefront":3386,"sely":3387,"Ġcups":3388,"Ġpretty":3389,"Ġdeli":3390,"Ġbillboard":3391,"Ġjewel":3392,"Ġbackdrop":3393,"Ġshepherd":3394,"py":3395,"Ġsad":3396,"Ġsides":3397,"Ġinte":3398,"Ġange":3399,"Ġdoors":3400,"Ġnail":3401,"Ġtattooed":3402,"Ġplates":3403,"Ġdirections":3404,"Ġceremony":3405,"Ġvillage":3406,"Ġelephant":3407,"book":3408,"flops":3409,"ared":3410,"lish":3411,"ula":3412,"Ġwig":3413,"Ġwading":3414,"Ġcel":3415,"Ġhuddle":3416,"Ġdot":3417,"ops":3418,"Ġatv":3419,"Ġrural":3420,"Ġorgan":3421,"Ġoverhead":3422,"Ġbeneath":3423,"Ġcase":3424,"Ġartwork":3425,"Ġpush":3426,"ctory":3427,"Ġfalls":3428,"Ġdining":3429,"Ġbouquet":3430,"Ġchicken":3431,"Ġmarried":3432,"Ġjewelry":3433,"sks":3434,"ually":3435,"wor":3436,"Ġaqu":3437,"Ġinvol":3438,"locks":3439,"Ġjung":3440,"Ġparents":3441,"Ġattra":3442,"izon":3443,"Ġphotographed":3444,"Ġtourist":3445,"Ġcalled":3446,"Ġpatterned":3447,"Ġjungle":3448,"eram":3449,"Ġderby":3450,"uts":3451,"american":3452,"Ġgroups":3453,"Ġtech":3454,"Ġsuitcase":3455,"Ġhorseback":3456,"Ġapartment":3457,"Ġcuts":3458,"Ġbalances":3459,"Ġdune":3460,"Ġelectronic":3461,"Ġax":3462,"Ġreach":3463,"urs":3464,"ads":3465,"Ġdownhill":3466,"Ġlear":3467,"Ġbuy":3468,"Ġtrailer":3469,"Ġteaching":3470,"Ġchecks":3471,"Ġpurch":3472,"Ġshops":3473,"Ġkayaking":3474,"Ġfurn":3475,"Ġchains":3476,"Ġtelephone":3477,"Ġthumbs":3478,"Ġdreadlocks":3479,"Ġrelig":3480,"zen":3481,"Ġsack":3482,"Ġdu":3483,"Ġdoctor":3484,"Ġlan":3485,"aps":3486,"Ġfactory":3487,"Ġgathers":3488,"bbing":3489,"Ġterrain":3490,"Ġdiscussion":3491,"Ġtraveling":3492,"Ġexercise":3493,"ef":3494,"mat":3495,"pr":3496,"Ġawa":3497,"Ġtug":3498,"Ġloom":3499,"Ġroo":3500,"Ġheav":3501,"Ġkite":3502,"Ġworld":3503,"Ġtex":3504,"Ġtrim":3505,"Ġtraining":3506,"Ġhillside":3507,"Ġcrafts":3508,"Ġconverse":3509,"Ġbutter":3510,"Ġstraight":3511,"Ġshovels":3512,"Ġbreakdan":3513,"Ġcalm":3514,"Ġtower":3515,"Ġdonkey":3516,"Ġfancy":3517,"Ġdimly":3518,"Ġcollared":3519,"gy":3520,"tain":3521,"Ġpress":3522,"Ġfat":3523,"Ġname":3524,"Ġupon":3525,"Ġmore":3526,"Ġbarrier":3527,"Ġfluffy":3528,"Ġflat":3529,"Ġpottery":3530,"Ġathletes":3531,"Ġobserve":3532,"Ġcrouching":3533,"Ġslightly":3534,"uum":3535,"wood":3536,"Ġ&":3537,"Ġbla":3538,"ised":3539,"Ġduck":3540,"ense":3541,"Ġstill":3542,"chan":3543,"Ġparas":3544,"Ġlive":3545,"Ġattending":3546,"Ġsteel":3547,"Ġpartially":3548,"Ġfurry":3549,"Ġleads":3550,"Ġpetting":3551,"Ġteammate":3552,"Ġtux":3553,"Ġapplying":3554,"Ġreligious":3555,"ino":3556,"ative":3557,"Ġstir":3558,"orting":3559,"Ġloading":3560,"ilts":3561,"Ġsoda":3562,"Ġscout":3563,"lled":3564,"Ġhorizon":3565,"Ġcandles":3566,"Ġcasual":3567,"Ġadjust":3568,"Ġcontrol":3569,"Ġsprinkler":3570,"Ġvacuum":3571,"Ġwakeboard":3572,"pical":3573,"Ġsal":3574,"iture":3575,"Ġfet":3576,"Ġpee":3577,"Ġeuro":3578,"Ġpale":3579,"Ġbroken":3580,"Ġseats":3581,"Ġspoon":3582,"Ġhandle":3583,"Ġcleans":3584,"Ġjoy":3585,"Ġshaved":3586,"Ġhotel":3587,"Ġclay":3588,"Ġgrinding":3589,"vision":3590,"Ġclouds":3591,"Ġfurniture":3592,"iving":3593,"ky":3594,"Ġge":3595,"Ġcooks":3596,"Ġcarts":3597,"Ġrap":3598,"Ġraces":3599,"Ġmobile":3600,"Ġcompetit":3601,"Ġturning":3602,"Ġcontest":3603,"Ġcraft":3604,"Ġnewly":3605,"Ġcalf":3606,"Ġcustomer":3607,"Ġdiscussing":3608,"Ġprotesters":3609,"Ġbleacher":3610,"lid":3611,"ments":3612,"no":3613,"nam":3614,"vi":3615,"Ġhad":3616,"Ġdusk":3617,"ato":3618,"otard":3619,"usting":3620,"Ġleotard":3621,"Ġcamping":3622,"Ġchess":3623,"Ġflipping":3624,"Ġrainy":3625,"Ġvendors":3626,"Ġquick":3627,"Ġwrestle":3628,"Ġprotesting":3629,"Ġactiv":3630,"Ġfeather":3631,"Ġmixing":3632,"Ġrollerblades":3633,"Ġgames":3634,"Ġcello":3635,"Ġslack":3636,"isle":3637,"Ġrod":3638,"Ġrows":3639,"Ġlean":3640,"ways":3641,"asium":3642,"Ġcouples":3643,"Ġpatch":3644,"Ġtricycle":3645,"Ġnumbers":3646,"Ġbanan":3647,"Ġclapping":3648,"Ġgymnasium":3649,"Ġengaged":3650,"Ġadvertising":3651,"Ġiron":3652,"Ġfencing":3653,"Ġmerch":3654,"Ġthough":3655,"Ġbleachers":3656,"bag":3657,"Ġ6":3658,"Ġu":3659,"Ġic":3660,"Ġpine":3661,"ately":3662,"Ġplacing":3663,"Ġkilt":3664,"Ġven":3665,"Ġcong":3666,"Ġsnowsh":3667,"enders":3668,"Ġclut":3669,"Ġdec":3670,"Ġdead":3671,"Ġshel":3672,"Ġfireman":3673,"Ġbatter":3674,"Ġvari":3675,"Ġsplash":3676,"Ġclad":3677,"Ġbelly":3678,"Ġfollows":3679,"Ġreflection":3680,"Ġassem":3681,"tails":3682,"where":3683,"Ġolympics":3684,"Ġcheek":3685,"Ġsandwich":3686,"'t":3687,"Ġcru":3688,"Ġshare":3689,"ically":3690,"Ġsection":3691,"Ġcameram":3692,"izing":3693,"Ġelev":3694,"coat":3695,"Ġtrunk":3696,"Ġstarting":3697,"Ġgymnastics":3698,"Ġfollowing":3699,"Ġfinish":3700,"Ġpaddles":3701,"Ġbranches":3702,"Ġinspecting":3703,"aract":3704,"Ġpumpk":3705,"Ġslacks":3706,"ded":3707,"uble":3708,"Ġodd":3709,"Ġbends":3710,"ream":3711,"Ġtheater":3712,"Ġdro":3713,"lad":3714,"orm":3715,"uting":3716,"Ġchase":3717,"Ġcharact":3718,"umer":3719,"Ġvic":3720,"Ġconf":3721,"Ġdrill":3722,"Ġcameras":3723,"Ġcome":3724,"Ġbricks":3725,"Ġcoloring":3726,"brush":3727,"Ġexamines":3728,"Ġtrashcan":3729,"Ġwritten":3730,"Ġornate":3731,"hol":3732,"ters":3733,"Ġtick":3734,"ising":3735,"Ġang":3736,"Ġhop":3737,"Ġhind":3738,"ldo":3739,"Ġcovers":3740,"illed":3741,"Ġtape":3742,"Ġlarger":3743,"Ġtea":3744,"Ġscore":3745,"Ġflute":3746,"Ġnighttime":3747,"Ġhug":3748,"Ġcreating":3749,"Ġfilling":3750,"Ġyoga":3751,"Ġtelevision":3752,"Ġamidst":3753,"Ġbulldo":3754,"Ġfolded":3755,"cc":3756,"cross":3757,"cade":3758,"ored":3759,"Ġident":3760,"Ġaim":3761,"Ġcall":3762,"Ġcage":3763,"ishing":3764,"Ġstall":3765,"ries":3766,"Ġmass":3767,"Ġfake":3768,"Ġexper":3769,"Ġhugs":3770,"Ġcraw":3771,"Ġglove":3772,"Ġlisten":3773,"Ġtropical":3774,"Ġspraying":3775,"Ġcasually":3776,"Ġportra":3777,"Ġsupport":3778,"Ġgestures":3779,"Ġcommun":3780,"Ġweaving":3781,"Ġtuxed":3782,"war":3783,"Ġdom":3784,"Ġsty":3785,"Ġwhis":3786,"Ġwhom":3787,"Ġtail":3788,"Ġgradu":3789,"Ġbron":3790,"Ġclosely":3791,"Ġforehead":3792,"weight":3793,"Ġkisses":3794,"Ġscenic":3795,"Ġlaptops":3796,"Ġfirefighter":3797,"Ġsilhouette":3798,"Ġvariety":3799,"ives":3800,"vil":3801,"Ġump":3802,"Ġpins":3803,"Ġdone":3804,"Ġdive":3805,"Ġrally":3806,"Ġchin":3807,"Ġnumer":3808,"Ġbad":3809,"Ġhouses":3810,"Ġlat":3811,"ctors":3812,"Ġpoor":3813,"Ġcrown":3814,"Ġmasks":3815,"Ġbrief":3816,"Ġskiers":3817,"Ġmechan":3818,"Ġwheelb":3819,"Ġpoint":3820,"Ġlistens":3821,"ific":3822,"Ġgroceries":3823,"Ġtires":3824,"Ġexplo":3825,"ocular":3826,"Ġmoment":3827,"Ġbinocular":3828,"Ġeurope":3829,"ged":3830,"ipp":3831,"lies":3832,"Ġinform":3833,"Ġmay":3834,"Ġcop":3835,"Ġshar":3836,"Ġplaced":3837,"Ġlabor":3838,"Ġlecture":3839,"Ġsniff":3840,"Ġoverweight":3841,"Ġmoder":3842,"Ġshorel":3843,"Ġopens":3844,"Ġviewing":3845,"lined":3846,"Ġimp":3847,"Ġnature":3848,"Ġcrouched":3849,"Ġcarefully":3850,"Ġmissing":3851,"Ġbeanie":3852,"Ġlondon":3853,"Ġumpire":3854,"Ġshoreline":3855,"ders":3856,"gen":3857,"mark":3858,"reg":3859,"Ġgalle":3860,"Ġhun":3861,"Ġstom":3862,"Ġstare":3863,"orn":3864,"Ġpeers":3865,"Ġlighting":3866,"Ġchatting":3867,"Ġcoaster":3868,"oth":3869,"ument":3870,"Ġpours":3871,"Ġracers":3872,"Ġjumped":3873,"Ġacro":3874,"Ġages":3875,"Ġcanv":3876,"Ġmex":3877,"Ġwheelie":3878,"Ġcray":3879,"Ġscenery":3880,"Ġpractices":3881,"Ġobserves":3882,"Ġpuppies":3883,"Ġchocola":3884,"Ġrollerblading":3885,"Ġmessy":3886,"Ġtripod":3887,"Ġgallery":3888,"count":3889,"tured":3890,"Ġav":3891,"Ġaisle":3892,"Ġsized":3893,"Ġbit":3894,"Ġmin":3895,"arves":3896,"Ġfit":3897,"Ġhut":3898,"Ġdj":3899,"Ġstones":3900,"Ġdough":3901,"Ġplayed":3902,"Ġbak":3903,"Ġbrow":3904,"Ġbrother":3905,"Ġseag":3906,"Ġcamel":3907,"Ġbush":3908,"Ġsurfs":3909,"Ġpathway":3910,"Ġturns":3911,"Ġcute":3912,"Ġcircular":3913,"Ġparticipate":3914,"Ġtouches":3915,"Ġpigtails":3916,"Ġteammates":3917,"Ġjuice":3918,"Ġtarget":3919,"Ġlicking":3920,"Ġskinny":3921,"Ġrapids":3922,"Ġvenue":3923,"Ġchocolate":3924,"bur":3925,"hat":3926,"iet":3927,"Ġut":3928,"Ġtiny":3929,"Ġpir":3930,"Ġpood":3931,"Ġdad":3932,"iring":3933,"Ġmane":3934,"ices":3935,"Ġcool":3936,"Ġhispan":3937,"Ġgrabbing":3938,"Ġword":3939,"Ġchewing":3940,"Ġshoppers":3941,"Ġsaying":3942,"Ġdisplays":3943,"Ġnotes":3944,"melon":3945,"most":3946,"Ġmoped":3947,"Ġapproaching":3948,"Ġolympic":3949,"Ġtossing":3950,"Ġparachute":3951,"Ġnumerous":3952,"Ġseagull":3953,"bal":3954,"fo":3955,"Ġsat":3956,"arn":3957,"rail":3958,"Ġremo":3959,"Ġrolled":3960,"Ġwatermelon":3961,"Ġspark":3962,"Ġwares":3963,"Ġarr":3964,"Ġsunlight":3965,"Ġheaddress":3966,"Ġcomes":3967,"Ġlifts":3968,"Ġmotion":3969,"Ġindust":3970,"Ġalmost":3971,"Ġpresents":3972,"Ġflips":3973,"Ġbowls":3974,"Ġcelebration":3975,"resting":3976,"Ġpassenger":3977,"Ġadjusting":3978,"Ġrollerskating":3979,"Ġchalkboard":3980,"Ġballerina":3981,"Ġbutterf":3982,"Ġquickly":3983,"Ġbinoculars":3984,"Ġhispanic":3985,"con":3986,"Ġill":3987,"Ġoven":3988,"Ġbite":3989,"ities":3990,"arter":3991,"Ġyarn":3992,"ution":3993,"quin":3994,"Ġbrit":3995,"Ġamer":3996,"Ġhorn":3997,"ivers":3998,"Ġtoddlers":3999,"Ġturban":4000,"Ġalco":4001,"Ġexamine":4002,"Ġhoops":4003,"Ġlogo":4004,"Ġtiled":4005,"Ġshadows":4006,"Ġsupplies":4007,"Ġembrace":4008,"Ġlounge":4009,"Ġautumn":4010,"Ġstory":4011,"Ġexhibit":4012,"Ġsnowshoes":4013,"Ġwheelbarrow":4014,"Ġmodern":4015,"Ġcanvas":4016,"wl":4017,"Ġtom":4018,"Ġtig":4019,"Ġtorch":4020,"Ġfle":4021,"Ġstump":4022,"Ġtouch":4023,"Ġrecord":4024,"style":4025,"urf":4026,"Ġlass":4027,"Ġlacross":4028,"Ġpocket":4029,"Ġsem":4030,"Ġsep":4031,"Ġmail":4032,"Ġjeep":4033,"Ġmusc":4034,"Ġenvi":4035,"Ġwinds":4036,"Ġmarch":4037,"aker":4038,"Ġrif":4039,"ronment":4040,"Ġsilly":4041,"Ġalleyway":4042,"Ġshades":4043,"Ġsweeps":4044,"Ġ201":4045,"Ġbagpipes":4046,"Ġcongreg":4047,"Ġvictor":4048,"Ġenvironment":4049,"fire":4050,"xy":4051,"Ġtut":4052,"Ġmc":4053,"Ġmanne":4054,"Ġwithin":4055,"Ġshield":4056,"Ġpay":4057,"inder":4058,"Ġspid":4059,"Ġhandrail":4060,"Ġmovie":4061,"Ġstripe":4062,"Ġattend":4063,"Ġmouths":4064,"Ġcontra":4065,"Ġshakes":4066,"Ġdrawn":4067,"Ġlanding":4068,"Ġproducts":4069,"Ġmedium":4070,"Ġdescent":4071,"Ġembracing":4072,"Ġeggs":4073,"Ġexpression":4074,"Ġlearning":4075,"Ġsharp":4076,"Ġlacrosse":4077,"eler":4078,"gu":4079,"hand":4080,"hift":4081,"mes":4082,"po":4083,"Ġ8":4084,"ata":4085,"Ġrem":4086,"Ġrear":4087,"Ġlip":4088,"Ġchar":4089,"Ġfrozen":4090,"Ġwords":4091,"Ġrack":4092,"Ġvalle":4093,"ures":4094,"Ġarcade":4095,"Ġcamels":4096,"Ġenclo":4097,"Ġshower":4098,"Ġhills":4099,"Ġmachines":4100,"Ġconcent":4101,"Ġpads":4102,"Ġmakeshift":4103,"Ġearring":4104,"Ġbrace":4105,"Ġcrates":4106,"Ġspotted":4107,"atory":4108,"Ġrollerskates":4109,"Ġrolls":4110,"Ġcompany":4111,"Ġhuman":4112,"Ġchainsaw":4113,"Ġcameraman":4114,"Ġstomach":4115,"bre":4116,"net":4117,"Ġ7":4118,"inet":4119,"ided":4120,"Ġdouble":4121,"opter":4122,"icopter":4123,"Ġlink":4124,"Ġplayfully":4125,"Ġcot":4126,"Ġela":4127,"ards":4128,"imes":4129,"Ġsoap":4130,"Ġcomfor":4131,"Ġmidst":4132,"Ġhelicopter":4133,"quo":4134,"Ġacc":4135,"Ġdrag":4136,"Ġquarter":4137,"Ġmonkey":4138,"Ġchefs":4139,"coming":4140,"Ġdusty":4141,"Ġbegins":4142,"donal":4143,"Ġprinted":4144,"Ġbutterfly":4145,"Ġalcohol":4146,"Ġmcdonal":4147,"Ġvalley":4148,"cam":4149,"den":4150,"hop":4151,"Ġtrench":4152,"Ġwand":4153,"Ġmount":4154,"rous":4155,"Ġgot":4156,"Ġfed":4157,"Ġtooth":4158,"icle":4159,"Ġnun":4160,"Ġhook":4161,"umin":4162,"rial":4163,"Ġbuff":4164,"Ġmaint":4165,"bles":4166,"rucks":4167,"Ġscream":4168,"Ġunus":4169,"Ġaccom":4170,"Ġdives":4171,"Ġteens":4172,"Ġhike":4173,"Ġcurtain":4174,"Ġserve":4175,"Ġdecorative":4176,"Ġbrass":4177,"Ġswimsuits":4178,"Ġsuspenders":4179,"Ġunderwear":4180,"Ġwires":4181,"Ġfarmer":4182,"Ġinteracting":4183,"sticks":4184,"Ġnotebook":4185,"Ġadmiring":4186,"Ġacrobat":4187,"Ġindustrial":4188,"Ġsemi":4189,"quoise":4190,"camera":4191,"bies":4192,"girl":4193,"Ġtights":4194,"Ġcit":4195,"Ġfel":4196,"Ġhy":4197,"unk":4198,"Ġtwirl":4199,"Ġrice":4200,"Ġbamb":4201,"Ġcoo":4202,"adow":4203,"Ġbuilt":4204,"Ġvol":4205,"Ġtext":4206,"Ġscient":4207,"Ġperched":4208,"Ġheaded":4209,"Ġador":4210,"Ġcash":4211,"Ġdebr":4212,"Ġboards":4213,"Ġturquoise":4214,"Ġboxer":4215,"Ġgift":4216,"Ġsquirt":4217,"Ġnewspapers":4218,"Ġblankets":4219,"Ġwrestler":4220,"Ġtrolley":4221,"Ġlocated":4222,"Ġstoop":4223,"Ġpedestrian":4224,"Ġbouncing":4225,"Ġowner":4226,"Ġscrubs":4227,"Ġinteresting":4228,"Ġrooft":4229,"Ġconcentr":4230,"Ġelabor":4231,"Ġbamboo":4232,"Ġdebris":4233,"ake":4234,"green":4235,"lines":4236,"ney":4237,"anges":4238,"Ġmor":4239,"Ġcher":4240,"Ġcub":4241,"Ġbound":4242,"Ġresc":4243,"Ġjud":4244,"Ġcargo":4245,"Ġmain":4246,"ational":4247,"Ġwheeled":4248,"Ġappare":4249,"Ġcanad":4250,"Ġhighway":4251,"Ġdiver":4252,"Ġstairway":4253,"Ġpraying":4254,"Ġbusinessman":4255,"Ġharves":4256,"Ġknitting":4257,"Ġpolicemen":4258,"Ġwrites":4259,"Ġhotdog":4260,"Ġtiger":4261,"ham":4262,"ikes":4263,"rat":4264,"val":4265,"Ġpilo":4266,"Ġgive":4267,"aters":4268,"Ġstilts":4269,"Ġbeads":4270,"Ġkim":4271,"Ġrad":4272,"Ġsele":4273,"Ġscra":4274,"Ġsurpr":4275,"Ġasians":4276,"Ġmountainside":4277,"Ġbattle":4278,"Ġcolorfully":4279,"Ġartists":4280,"Ġshaggy":4281,"Ġcowboys":4282,"Ġaprons":4283,"Ġmonument":4284,"Ġsledding":4285,"Ġscooters":4286,"Ġcandle":4287,"Ġstretches":4288,"Ġscaffold":4289,"Ġapproaches":4290,"Ġbrushes":4291,"Ġgazes":4292,"Ġdemonstration":4293,"Ġsailboat":4294,"Ġlounging":4295,"Ġpinata":4296,"Ġsuv":4297,"Ġemergen":4298,"Ġangel":4299,"Ġbulldozer":4300,"Ġportrait":4301,"Ġrooftop":4302,"Ġemergency":4303,"bank":4304,"ule":4305,"Ġtired":4306,"Ġsen":4307,"Ġwill":4308,"itors":4309,"Ġcans":4310,"Ġgest":4311,"atoes":4312,"andise":4313,"Ġchat":4314,"Ġchina":4315,"Ġchamp":4316,"ades":4317,"amed":4318,"Ġva":4319,"ngth":4320,"Ġunderground":4321,"Ġmotorized":4322,"Ġcrosscount":4323,"Ġhighchair":4324,"Ġpassers":4325,"Ġkno":4326,"ifier":4327,"Ġimages":4328,"Ġphotographers":4329,"Ġbathtub":4330,"Ġtackled":4331,"Ġcolum":4332,"Ġfigures":4333,"Ġfarmers":4334,"Ġintervie":4335,"Ġpillar":4336,"Ġducks":4337,"Ġmerchandise":4338,"Ġpumpkin":4339,"Ġmexican":4340,"Ġcontraption":4341,"Ġcrosscountry":4342,"cil":4343,"Ġ9":4344,"Ġing":4345,"Ġver":4346,"Ġsym":4347,"Ġwife":4348,"Ġmower":4349,"Ġplaces":4350,"Ġatm":4351,"Ġrick":4352,"Ġchis":4353,"elf":4354,"Ġsmoot":4355,"Ġbystand":4356,"emade":4357,"Ġwash":4358,"Ġcape":4359,"Ġfishes":4360,"Ġcostumed":4361,"ize":4362,"Ġcurve":4363,"Ġwere":4364,"Ġhomemade":4365,"Ġenth":4366,"Ġmilk":4367,"Ġburning":4368,"Ġfollowed":4369,"Ġpretending":4370,"ably":4371,"cloth":4372,"Ġblurry":4373,"Ġsurgery":4374,"Ġattractive":4375,"Ġaxe":4376,"Ġlanter":4377,"Ġaccompan":4378,"ex":4379,"rs":4380,"Ġsear":4381,"Ġmow":4382,"Ġcycling":4383,"enting":4384,"Ġtoo":4385,"otic":4386,"Ġbelon":4387,"Ġasia":4388,"Ġlate":4389,"lowing":4390,"Ġhawa":4391,"Ġmasc":4392,"Ġware":4393,"Ġcheese":4394,"Ġjogs":4395,"Ġwrist":4396,"Ġstrapped":4397,"Ġworkshop":4398,"Ġdisplayed":4399,"Ġdirect":4400,"Ġwrestlers":4401,"Ġburg":4402,"Ġassist":4403,"Ġlifted":4404,"Ġentertaining":4405,"Ġdemonstrating":4406,"Ġdepartment":4407,"Ġloaded":4408,"Ġpunching":4409,"Ġheavily":4410,"Ġbriefcase":4411,"Ġpassersby":4412,"Ġhawai":4413,"een":4414,"mon":4415,"pie":4416,"rid":4417,"Ġaerial":4418,"Ġsund":4419,"ises":4420,"romat":4421,"Ġfind":4422,"Ġhiding":4423,"ora":4424,"Ġshiny":4425,"Ġnav":4426,"undy":4427,"usi":4428,"body":4429,"Ġsidelines":4430,"Ġsnowball":4431,"Ġsnowsuit":4432,"Ġsco":4433,"Ġgoat":4434,"Ġmouse":4435,"Ġtopless":4436,"Ġaged":4437,"Ġboarding":4438,"Ġturtle":4439,"Ġbrides":4440,"Ġposters":4441,"Ġtournam":4442,"Ġcontaining":4443,"Ġsplashed":4444,"Ġplanting":4445,"Ġbreakdancing":4446,"Ġinformation":4447,"Ġmaneu":4448,"Ġlasso":4449,"Ġ2012":4450,"Ġkimon":4451,"Ġburgundy":4452,"dr":4453,"ients":4454,"zy":4455,"Ġado":4456,"Ġwon":4457,"annel":4458,"Ġbend":4459,"Ġinj":4460,"Ġinst":4461,"leas":4462,"Ġfrench":4463,"Ġshining":4464,"Ġdol":4465,"icans":4466,"Ġrecor":4467,"Ġlime":4468,"Ġrings":4469,"stro":4470,"Ġberet":4471,"Ġleas":4472,"Ġbib":4473,"Ġspan":4474,"Ġprocess":4475,"Ġdisc":4476,"Ġclearing":4477,"Ġstudying":4478,"Ġskyd":4479,"iously":4480,"Ġbutcher":4481,"Ġnets":4482,"Ġseries":4483,"Ġbanjo":4484,"Ġlocation":4485,"ensive":4486,"Ġcontainers":4487,"Ġstretched":4488,"Ġpacked":4489,"Ġstringed":4490,"Ġlaundromat":4491,"Ġsleeves":4492,"dressed":4493,"Ġmerry":4494,"works":4495,"Ġscouts":4496,"Ġlaboratory":4497,"Ġcotton":4498,"Ġcitiz":4499,"Ġbelonging":4500,"Ġwarehouse":4501,"Ġtournament":4502,"act":4503,"bby":4504,"Ġtem":4505,"Ġinner":4506,"Ġpy":4507,"Ġgri":4508,"oms":4509,"opes":4510,"Ġlips":4511,"illy":4512,"vering":4513,"ief":4514,"Ġrabb":4515,"Ġlegging":4516,"Ġvending":4517,"Ġjumper":4518,"igning":4519,"Ġfoods":4520,"Ġmountainous":4521,"Ġbarric":4522,"Ġmarble":4523,"Ġfireworks":4524,"Ġshawl":4525,"Ġstepping":4526,"Ġstatues":4527,"Ġentering":4528,"Ġofficial":4529,"Ġpots":4530,"Ġmonitor":4531,"Ġbeverages":4532,"Ġchopping":4533,"Ġsnacks":4534,"Ġdriveway":4535,"Ġretriever":4536,"Ġminiature":4537,"Ġconsisting":4538,"Ġadjusts":4539,"Ġgraduation":4540,"Ġpirate":4541,"Ġbritish":4542,"Ġrifle":4543,"Ġelaborate":4544,"Ġenthusi":4545,"ipped":4546,"ined":4547,"Ġtrucks":4548,"Ġol":4549,"Ġpow":4550,"Ġmit":4551,"Ġgoo":4552,"Ġplain":4553,"Ġbay":4554,"Ġlove":4555,"Ġcoast":4556,"ama":4557,"Ġem":4558,"Ġgrab":4559,"Ġoranges":4560,"Ġsomewhere":4561,"Ġhandling":4562,"Ġscrat":4563,"phy":4564,"Ġattack":4565,"Ġamount":4566,"Ġsailing":4567,"Ġcellphones":4568,"Ġkicked":4569,"Ġblood":4570,"Ġsteam":4571,"Ġpicks":4572,"Ġquiet":4573,"Ġbottoms":4574,"Ġgazing":4575,"Ġdesigns":4576,"Ġcomplete":4577,"Ġspeaker":4578,"Ġidentical":4579,"Ġgesturing":4580,"Ġcolumns":4581,"Ġhawaiian":4582,"Ġbridesma":4583,"Ġleggings":4584,"bed":4585,"Ġocc":4586,"Ġanti":4587,"ened":4588,"Ġstuck":4589,"lor":4590,"Ġtoile":4591,"Ġlion":4592,"Ġnine":4593,"iled":4594,"Ġblind":4595,"aded":4596,"Ġmenu":4597,"iment":4598,"Ġpac":4599,"Ġvi":4600,"Ġskills":4601,"Ġsideways":4602,"Ġspring":4603,"Ġscience":4604,"Ġtablecloth":4605,"Ġfacial":4606,"Ġprop":4607,"aging":4608,"Ġspecial":4609,"Ġsquats":4610,"Ġservice":4611,"Ġstars":4612,"Ġtackling":4613,"Ġwaterski":4614,"Ġguards":4615,"Ġwashes":4616,"Ġframed":4617,"Ġconductor":4618,"Ġsupermark":4619,"Ġsocializing":4620,"Ġemployee":4621,"Ġtuxedo":4622,"Ġquarterback":4623,"Ġtoothbrush":4624,"Ġunusual":4625,"Ġmorning":4626,"Ġbystanders":4627,"Ġbelongings":4628,"kis":4629,"wed":4630,"Ġest":4631,"inis":4632,"Ġsar":4633,"Ġsound":4634,"Ġovers":4635,"Ġmy":4636,"Ġmur":4637,"Ġfer":4638,"Ġstaff":4639,"Ġthan":4640,"Ġja":4641,"Ġbabies":4642,"Ġcows":4643,"Ġgrabs":4644,"Ġkio":4645,"Ġoverlo":4646,"ements":4647,"Ġunlo":4648,"Ġunivers":4649,"Ġwhose":4650,"Ġdaytime":4651,"Ġflannel":4652,"Ġsailo":4653,"Ġmeadow":4654,"Ġauditor":4655,"Ġdecorations":4656,"Ġtypes":4657,"Ġproduct":4658,"Ġprojector":4659,"Ġoperates":4660,"Ġrepairs":4661,"Ġretur":4662,"Ġreception":4663,"Ġstrike":4664,"Ġemployees":4665,"Ġinvolving":4666,"Ġwhistle":4667,"Ġbronco":4668,"Ġeuropean":4669,"Ġcrayons":4670,"Ġmannequin":4671,"Ġpilot":4672,"Ġsupermarket":4673,"Ġauditorium":4674,"lim":4675,"pit":4676,"yed":4677,"Ġara":4678,"Ġage":4679,"Ġmi":4680,"ester":4681,"oned":4682,"onge":4683,"Ġshru":4684,"Ġthick":4685,"Ġlogs":4686,"Ġcoca":4687,"ott":4688,"Ġhistor":4689,"Ġeas":4690,"Ġlevel":4691,"Ġconv":4692,"Ġsponge":4693,"ship":4694,"Ġsciss":4695,"Ġscaling":4696,"Ġunh":4697,"uds":4698,"Ġmuslim":4699,"Ġexpla":4700,"Ġmarsh":4701,"Ġmotorcyclists":4702,"Ġmarked":4703,"Ġmeas":4704,"Ġbikinis":4705,"Ġnumbered":4706,"Ġdragging":4707,"Ġskyline":4708,"bbles":4709,"Ġcrashing":4710,"Ġbedroom":4711,"Ġstrugg":4712,"Ġharbor":4713,"Ġelectrical":4714,"Ġtermin":4715,"Ġspotlight":4716,"Ġfeaturing":4717,"Ġpattern":4718,"Ġletters":4719,"Ġtarp":4720,"Ġbundled":4721,"Ġpurchas":4722,"Ġblazer":4723,"Ġpoodle":4724,"Ġfellow":4725,"Ġcherry":4726,"Ġrescue":4727,"Ġnavig":4728,"Ġenthusiast":4729,"Ġarab":4730,"wear":4731,"Ġmug":4732,"Ġhip":4733,"Ġdet":4734,"Ġstain":4735,"opy":4736,"Ġpeering":4737,"Ġran":4738,"Ġrust":4739,"Ġbeers":4740,"ils":4741,"Ġeag":4742,"Ġwaterway":4743,"Ġupward":4744,"Ġfoam":4745,"Ġskull":4746,"Ġyelling":4747,"apped":4748,"Ġclock":4749,"Ġsunbat":4750,"Ġaddress":4751,"gger":4752,"Ġfloats":4753,"Ġused":4754,"Ġsaus":4755,"Ġtreat":4756,"Ġcann":4757,"Ġkickbox":4758,"Ġdigs":4759,"Ġdigital":4760,"Ġrelaxes":4761,"Ġfoli":4762,"Ġblocking":4763,"Ġcasting":4764,"Ġadvertisements":4765,"Ġfestive":4766,"Ġbooths":4767,"Ġeyeglasses":4768,"Ġgaze":4769,"Ġmagazines":4770,"Ġgrinds":4771,"Ġelse":4772,"Ġjockeys":4773,"Ġblurred":4774,"Ġdumpster":4775,"Ġnurse":4776,"Ġactivity":4777,"Ġcharacters":4778,"Ġillumin":4779,"Ġhydr":4780,"Ġcanadian":4781,"Ġradio":4782,"Ġingred":4783,"Ġricksh":4784,"Ġtemple":4785,"Ġkiosk":4786,"Ġuniversity":4787,"field":4788,"tie":4789,"Ġtimes":4790,"Ġsigning":4791,"Ġharm":4792,"orts":4793,"Ġshape":4794,"andel":4795,"ram":4796,"strip":4797,"Ġlock":4798,"Ġtags":4799,"Ġgras":4800,"Ġraz":4801,"Ġneed":4802,"Ġskies":4803,"Ġsees":4804,"Ġhandbag":4805,"aphone":4806,"Ġscarves":4807,"Ġheading":4808,"ague":4809,"agne":4810,"Ġwhen":4811,"Ġcanal":4812,"Ġdraw":4813,"Ġchecked":4814,"Ġenter":4815,"ails":4816,"Ġclowns":4817,"Ġwrap":4818,"Ġvisiting":4819,"Ġstock":4820,"Ġextended":4821,"Ġautom":4822,"Ġcampfire":4823,"Ġgreyhounds":4824,"Ġletter":4825,"Ġsyn":4826,"Ġinstructor":4827,"Ġhotdogs":4828,"Ġbananas":4829,"Ġbrowsing":4830,"Ġwindsurf":4831,"Ġvictory":4832,"Ġsurprised":4833,"Ġchampagne":4834,"piece":4835,"Ġscissors":4836,"Ġunhap":4837,"Ġterminal":4838,"Ġfoliage":4839,"Ġhydrant":4840,"bing":4841,"noon":4842,"pants":4843,"tion":4844,"tender":4845,"Ġpunch":4846,"lets":4847,"ison":4848,"arium":4849,"enance":4850,"Ġdoctors":4851,"Ġya":4852,"Ġreally":4853,"Ġcock":4854,"Ġcocon":4855,"ilies":4856,"Ġhaul":4857,"Ġpauses":4858,"Ġupper":4859,"Ġfields":4860,"Ġpictured":4861,"ude":4862,"Ġshelf":4863,"Ġpatri":4864,"Ġstores":4865,"Ġtrains":4866,"Ġpushed":4867,"Ġboxers":4868,"cake":4869,"Ġdraped":4870,"Ġlining":4871,"Ġcasino":4872,"Ġzone":4873,"Ġfinishing":4874,"Ġpencil":4875,"Ġyouths":4876,"Ġsilhouet":4877,"Ġfocused":4878,"Ġaquarium":4879,"Ġcompetitive":4880,"Ġcommunity":4881,"Ġavo":4882,"Ġearrings":4883,"Ġinjured":4884,"Ġspanish":4885,"Ġestab":4886,"Ġoverlooks":4887,"Ġingredients":4888,"Ġunhappy":4889,"mill":4890,"vent":4891,"zing":4892,"Ġlimb":4893,"Ġholid":4894,"Ġbeat":4895,"Ġroses":4896,"imate":4897,"Ġpaying":4898,"Ġpersons":4899,"Ġspons":4900,"ians":4901,"Ġsol":4902,"Ġcrowds":4903,"dles":4904,"Ġunique":4905,"Ġdeer":4906,"Ġsweaters":4907,"Ġsurfers":4908,"Ġobsc":4909,"Ġlighted":4910,"Ġpassed":4911,"Ġmetro":4912,"Ġraincoat":4913,"Ġfilming":4914,"uffs":4915,"Ġraise":4916,"Ġearphones":4917,"ucking":4918,"Ġcrate":4919,"Ġburied":4920,"Ġhambur":4921,"Ġcelebrate":4922,"Ġ10":4923,"Ġnatural":4924,"Ġtransit":4925,"Ġinspects":4926,"Ġbounce":4927,"Ġchopsticks":4928,"Ġsparks":4929,"Ġpurchase":4930,"Ġticket":4931,"Ġseagulls":4932,"Ġtutu":4933,"Ġmcdonald":4934,"Ġmaintenance":4935,"Ġscreaming":4936,"Ġsymbo":4937,"Ġharmon":4938,"Ġestablish":4939,"Ġholiday":4940,"car":4941,"og":4942,"zes":4943,"Ġ?":4944,"Ġawning":4945,"Ġtending":4946,"Ġsorting":4947,"anging":4948,"alt":4949,"Ġasc":4950,"Ġasking":4951,"Ġhear":4952,"seat":4953,"Ġmaj":4954,"empla":4955,"Ġunf":4956,"Ġcommer":4957,"Ġclar":4958,"Ġpurses":4959,"Ġflock":4960,"Ġwaitress":4961,"Ġsheets":4962,"Ġtread":4963,"Ġprepared":4964,"orted":4965,"Ġdesks":4966,"Ġeven":4967,"Ġindia":4968,"Ġpaintings":4969,"Ġpaperwork":4970,"Ġcontempla":4971,"Ġpray":4972,"Ġafternoon":4973,"Ġpointed":4974,"Ġcigarettes":4975,"Ġpotato":4976,"osaur":4977,"Ġdinosaur":4978,"Ġbarefooted":4979,"Ġsprayed":4980,"Ġbarbecu":4981,"Ġjumpsuits":4982,"Ġreceiving":4983,"Ġarchite":4984,"Ġmuzzle":4985,"Ġparasa":4986,"Ġstirring":4987,"Ġsniffing":4988,"Ġbuffet":4989,"Ġolive":4990,"wh":4991,"Ġox":4992,"Ġbor":4993,"Ġbon":4994,"Ġbump":4995,"itch":4996,"lent":4997,"opo":4998,"Ġlush":4999,"Ġthre":5000,"stem":5001,"used":5002,"right":5003,"Ġupwards":5004,"Ġrafting":5005,"Ġfork":5006,"Ġcrops":5007,"Ġpersonnel":5008,"Ġsouth":5009,"shaped":5010,"Ġdrilling":5011,"Ġclimbers":5012,"Ġmountaintop":5013,"Ġbartender":5014,"Ġtribal":5015,"Ġapples":5016,"Ġflaming":5017,"Ġmarker":5018,"Ġflowing":5019,"Ġcany":5020,"Ġdriven":5021,"Ġhardwood":5022,"Ġfamilies":5023,"Ġclassic":5024,"Ġapart":5025,"Ġbutt":5026,"Ġserves":5027,"Ġintense":5028,"rested":5029,"Ġpresenting":5030,"Ġkayaks":5031,"ously":5032,"Ġgolfer":5033,"Ġcheerleader":5034,"quee":5035,"Ġspeeds":5036,"Ġfreshly":5037,"pass":5038,"Ġsurgical":5039,"Ġfatig":5040,"Ġicy":5041,"fold":5042,"Ġmounted":5043,"Ġtwirling":5044,"Ġsenior":5045,"Ġdirectly":5046,"Ġrecording":5047,"Ġinnertub":5048,"Ġmitt":5049,"Ġwaterskiing":5050,"Ġrazor":5051,"Ġharmonica":5052,"haps":5053,"kno":5054,"rit":5055,"Ġip":5056,"ints":5057,"Ġtying":5058,"Ġske":5059,"Ġpipes":5060,"Ġgig":5061,"icing":5062,"utes":5063,"store":5064,"ote":5065,"Ġlaid":5066,"Ġraking":5067,"Ġseas":5068,"Ġsomebody":5069,"Ġconne":5070,"Ġtrave":5071,"Ġsoon":5072,"Ġarri":5073,"Ġperhaps":5074,"Ġsurge":5075,"Ġwaiter":5076,"Ġcaution":5077,"Ġmarking":5078,"Ġriot":5079,"Ġpolit":5080,"Ġsuburban":5081,"Ġdraws":5082,"Ġdragon":5083,"Ġgarment":5084,"Ġresp":5085,"Ġphotographing":5086,"Ġpiles":5087,"Ġstunts":5088,"Ġportable":5089,"Ġpossession":5090,"Ġwarmly":5091,"Ġboulder":5092,"Ġbegin":5093,"Ġshoots":5094,"Ġsystem":5095,"Ġfashioned":5096,"Ġpeeking":5097,"Ġbites":5098,"Ġadolesc":5099,"Ġrickshaw":5100,"Ġestablishment":5101,"Ġcommercial":5102,"Ġcanyon":5103,"known":5104,"cra":5105,"ik":5106,"sized":5107,"reme":5108,"Ġpuzz":5109,"Ġmuch":5110,"erness":5111,"Ġgal":5112,"Ġfound":5113,"Ġhips":5114,"Ġhung":5115,"Ġstay":5116,"storm":5117,"Ġchips":5118,"Ġlast":5119,"Ġlabe":5120,"ieval":5121,"Ġbackseat":5122,"Ġlens":5123,"Ġbroad":5124,"Ġsnake":5125,"aping":5126,"Ġworkout":5127,"Ġclothed":5128,"Ġacting":5129,"Ġbring":5130,"Ġflood":5131,"Ġusa":5132,"Ġamaz":5133,"Ġflames":5134,"Ġbookstore":5135,"Ġcontents":5136,"Ġmemor":5137,"Ġmonk":5138,"Ġmonopo":5139,"inton":5140,"Ġstrollers":5141,"Ġmedieval":5142,"Ġprotection":5143,"Ġrowboat":5144,"Ġkhakis":5145,"Ġspots":5146,"Ġdryer":5147,"Ġextreme":5148,"Ġcleaner":5149,"Ġentertains":5150,"Ġhurdles":5151,"Ġbeginning":5152,"Ġpillows":5153,"Ġelmo":5154,"Ġcompleting":5155,"Ġribbons":5156,"Ġstriking":5157,"Ġdepic":5158,"Ġbunny":5159,"Ġwilderness":5160,"Ġhorizont":5161,"Ġfetch":5162,"Ġfeathers":5163,"Ġassemb":5164,"Ġdomin":5165,"Ġmailbox":5166,"Ġvertic":5167,"Ġdolph":5168,"Ġantique":5169,"Ġpacifier":5170,"Ġsailor":5171,"Ġlabeled":5172,"Ġmonopoly":5173,"dish":5174,"gress":5175,"minton":5176,"Ġab":5177,"Ġties":5178,"inger":5179,"Ġwield":5180,"Ġming":5181,"Ġgla":5182,"Ġflee":5183,"lap":5184,"sters":5185,"Ġjen":5186,"Ġbeca":5187,"Ġreddish":5188,"ami":5189,"Ġasph":5190,"Ġlav":5191,"Ġheal":5192,"Ġvint":5193,"Ġskaters":5194,"Ġsplit":5195,"Ġsnowman":5196,"apes":5197,"Ġgoate":5198,"Ġunknown":5199,"Ġbicycling":5200,"Ġacce":5201,"Ġprogress":5202,"Ġcaf":5203,"Ġwhole":5204,"Ġcattle":5205,"Ġpatron":5206,"Ġexiting":5207,"Ġwheeler":5208,"Ġcanopy":5209,"Ġbowler":5210,"Ġnightcl":5211,"Ġjoh":5212,"Ġforested":5213,"Ġcigar":5214,"Ġearly":5215,"bbling":5216,"Ġbelts":5217,"Ġstretch":5218,"Ġzip":5219,"Ġlower":5220,"Ġterrier":5221,"Ġracquet":5222,"Ġstacked":5223,"Ġnecklaces":5224,"Ġswords":5225,"Ġjuggles":5226,"Ġsparring":5227,"Ġeveryone":5228,"Ġmuzzled":5229,"Ġnurses":5230,"Ġpillars":5231,"Ġaqua":5232,"Ġawaiting":5233,"Ġaiming":5234,"Ġexperiment":5235,"Ġbadminton":5236,"Ġamerica":5237,"Ġmuscular":5238,"Ġapparent":5239,"Ġsmooth":5240,"Ġbridesmaids":5241,"Ġtoilet":5242,"Ġconvention":5243,"white":5244,"Ġbecause":5245,"Ġasphalt":5246,"Ġvintage":5247,"Ġnightclub":5248,"dra":5249,"lights":5250,"off":5251,"obile":5252,"pen":5253,"rd":5254,"tur":5255,"vices":5256,"was":5257,"Ġtips":5258,"Ġsam":5259,"Ġsling":5260,"Ġber":5261,"Ġinc":5262,"Ġpon":5263,"Ġcycle":5264,"Ġcult":5265,"ley":5266,"Ġfile":5267,"Ġfist":5268,"Ġfrying":5269,"Ġdest":5270,"Ġisland":5271,"Ġstate":5272,"Ġlun":5273,"chron":5274,"gee":5275,"Ġnike":5276,"Ġnamed":5277,"Ġcou":5278,"Ġled":5279,"Ġbust":5280,"pper":5281,"Ġrocking":5282,"iping":5283,"Ġpropped":5284,"Ġcave":5285,"Ġcarous":5286,"Ġhelmeted":5287,"Ġpatro":5288,"Ġleast":5289,"Ġsubst":5290,"Ġplank":5291,"Ġcheckers":5292,"Ġvegetation":5293,"azz":5294,"Ġlands":5295,"Ġclaus":5296,"Ġmonks":5297,"Ġmonitors":5298,"Ġpuppet":5299,"Ġstrawber":5300,"Ġpackage":5301,"Ġcookie":5302,"Ġstrum":5303,"Ġmixed":5304,"Ġcries":5305,"Ġdunk":5306,"Ġstacks":5307,"Ġdolls":5308,"Ġexercising":5309,"Ġtosses":5310,"eteria":5311,"Ġconducting":5312,"Ġtexting":5313,"Ġhandleb":5314,"Ġcluttered":5315,"Ġelevator":5316,"Ġmechanical":5317,"Ġseparate":5318,"Ġaccident":5319,"Ġfedora":5320,"Ġvaul":5321,"Ġscoop":5322,"Ġwonder":5323,"Ġautomobile":5324,"Ġsynchron":5325,"Ġjenga":5326,"Ġcafeteria":5327,"af":5328,"cast":5329,"mart":5330,"mmed":5331,"sting":5332,"sure":5333,"Ġtest":5334,"Ġsan":5335,"Ġslow":5336,"Ġcul":5337,"ishes":5338,"Ġfill":5339,"Ġhallow":5340,"Ġdeter":5341,"Ġstance":5342,"Ġboog":5343,"Ġsiting":5344,"Ġtast":5345,"Ġtask":5346,"Ġwatering":5347,"Ġpaws":5348,"Ġuphill":5349,"Ġleague":5350,"Ġgreenery":5351,"Ġsnowmo":5352,"Ġital":5353,"Ġscales":5354,"Ġscott":5355,"icker":5356,"Ġguide":5357,"ctions":5358,"Ġprov":5359,"Ġproud":5360,"Ġcomplet":5361,"Ġamb":5362,"Ġlooked":5363,"Ġflash":5364,"Ġfireplace":5365,"scent":5366,"Ġbodysuit":5367,"Ġjog":5368,"Ġriverbank":5369,"Ġbreast":5370,"Ġbreaking":5371,"Ġweap":5372,"Ġcarrier":5373,"Ġpicket":5374,"Ġearth":5375,"Ġquest":5376,"Ġtuba":5377,"Ġgardening":5378,"Ġgreet":5379,"Ġcountryside":5380,"Ġhammo":5381,"Ġvisor":5382,"Ġcheerleading":5383,"Ġkayaker":5384,"Ġmixer":5385,"Ġbeams":5386,"Ġpops":5387,"Ġapplies":5388,"Ġsaddle":5389,"Ġnails":5390,"Ġsalon":5391,"Ġbanana":5392,"Ġangry":5393,"Ġcrawling":5394,"Ġhunched":5395,"Ġbakery":5396,"Ġspiderman":5397,"Ġbracelet":5398,"Ġaccompanied":5399,"Ġsundress":5400,"stroke":5401,"Ġpyram":5402,"Ġvibr":5403,"Ġmurky":5404,"Ġmiami":5405,"Ġilluminated":5406,"Ġsponsored":5407,"craft":5408,"Ġsubstance":5409,"Ġhalloween":5410,"Ġboogie":5411,"Ġscottish":5412,"Ġcompletely":5413,"Ġhammock":5414,"bie":5415,"cility":5416,"jump":5417,"pain":5418,"the":5419,"vy":5420,"Ġid":5421,"Ġxy":5422,"Ġtin":5423,"Ġsquee":5424,"Ġciv":5425,"Ġful":5426,"Ġdess":5427,"attered":5428,"oring":5429,"ray":5430,"Ġbored":5431,"Ġpeak":5432,"itement":5433,"Ġwalmart":5434,"Ġeast":5435,"Ġupset":5436,"Ġfog":5437,"Ġcroc":5438,"Ġswan":5439,"Ġskim":5440,"Ġspike":5441,"Ġnearly":5442,"ppy":5443,"Ġfacility":5444,"Ġparka":5445,"Ġroadside":5446,"Ġcapture":5447,"Ġbatman":5448,"Ġdribbles":5449,"Ġdeser":5450,"vely":5451,"Ġturkey":5452,"Ġweight":5453,"Ġweird":5454,"Ġstopping":5455,"Ġrails":5456,"Ġsteering":5457,"Ġserved":5458,"Ġserious":5459,"Ġbanners":5460,"Ġcircuit":5461,"Ġharp":5462,"Ġbraided":5463,"Ġtrophy":5464,"Ġvideot":5465,"Ġ12":5466,"Ġincludes":5467,"Ġfinished":5468,"Ġwaterfront":5469,"cases":5470,"wheel":5471,"Ġexcitement":5472,"Ġtravels":5473,"Ġmotorbikes":5474,"Ġpiggy":5475,"Ġthought":5476,"Ġelbow":5477,"Ġbungee":5478,"Ġornam":5479,"Ġlicks":5480,"Ġadmire":5481,"Ġruins":5482,"Ġinvolved":5483,"Ġvacuuming":5484,"Ġcruise":5485,"Ġlipstick":5486,"Ġenclosed":5487,"Ġscientist":5488,"Ġmascot":5489,"Ġgoof":5490,"striped":5491,"Ġmajor":5492,"Ġfatigues":5493,"Ġhealth":5494,"Ġgoatee":5495,"Ġxylo":5496,"cro":5497,"inting":5498,"Ġsister":5499,"Ġwo":5500,"Ġbest":5501,"Ġbell":5502,"Ġping":5503,"Ġpant":5504,"legged":5505,"rows":5506,"Ġanc":5507,"Ġgor":5508,"Ġfell":5509,"Ġhus":5510,"Ġdam":5511,"Ġdivers":5512,"Ġdandel":5513,"Ġtoe":5514,"Ġyears":5515,"Ġreleas":5516,"Ġny":5517,"Ġlobby":5518,"Ġrot":5519,"Ġlaun":5520,"sem":5521,"Ġlength":5522,"Ġbuggy":5523,"Ġbudd":5524,"toon":5525,"Ġoverpass":5526,"Ġsoup":5527,"Ġcamps":5528,"Ġheadset":5529,"antly":5530,"Ġchem":5531,"Ġroadway":5532,"Ġfloors":5533,"Ġhorns":5534,"Ġdiap":5535,"Ġmeg":5536,"Ġcrazy":5537,"Ġdistant":5538,"Ġviewer":5539,"Ġschoolgirl":5540,"Ġdiner":5541,"Ġdirecting":5542,"ified":5543,"Ġfixes":5544,"Ġcollie":5545,"Ġsprays":5546,"Ġengage":5547,"Ġcanoes":5548,"Ġcollection":5549,"Ġcollecting":5550,"Ġwasher":5551,"Ġesc":5552,"Ġinflated":5553,"Ġtiles":5554,"Ġcomplex":5555,"Ġreclin":5556,"Ġsprinklers":5557,"Ġjewish":5558,"Ġordering":5559,"Ġarchway":5560,"Ġinteract":5561,"Ġslam":5562,"Ġtexas":5563,"Ġshelves":5564,"Ġutility":5565,"Ġtomatoes":5566,"Ġharvesting":5567,"Ġlanterns":5568,"Ġcitizens":5569,"Ġblindfold":5570,"Ġsilhouetted":5571,"Ġclarinet":5572,"Ġtreadmill":5573,"Ġinnertube":5574,"Ġcarousel":5575,"Ġsynchronized":5576,"Ġpyramid":5577,"Ġcivil":5578,"Ġpiggyback":5579,"ba":5580,"bu":5581,"dot":5582,"flow":5583,"friend":5584,"filled":5585,"hist":5586,"uc":5587,"wra":5588,"Ġir":5589,"Ġaband":5590,"inas":5591,"inished":5592,"Ġtam":5593,"Ġtorn":5594,"Ġwiping":5595,"Ġpets":5596,"Ġmist":5597,"Ġcy":5598,"Ġcry":5599,"Ġfi":5600,"Ġshack":5601,"Ġshines":5602,"Ġpeach":5603,"Ġreal":5604,"Ġrevie":5605,"Ġrim":5606,"Ġnic":5607,"Ġnood":5608,"ilted":5609,"using":5610,"keys":5611,"bob":5612,"Ġworn":5613,"Ġfoggy":5614,"Ġsket":5615,"Ġsnap":5616,"Ġspin":5617,"Ġspins":5618,"Ġperio":5619,"Ġcityscape":5620,"Ġskateboarders":5621,"Ġflour":5622,"Ġpainter":5623,"Ġattent":5624,"Ġflu":5625,"Ġbaton":5626,"Ġopened":5627,"Ġdried":5628,"Ġpolish":5629,"Ġmatt":5630,"scra":5631,"Ġclothesline":5632,"Ġbloss":5633,"Ġelement":5634,"Ġcurved":5635,"Ġskyscra":5636,"Ġfountains":5637,"Ġvarying":5638,"Ġpickup":5639,"Ġrefre":5640,"Ġsculpting":5641,"Ġincline":5642,"Ġtracksuit":5643,"Ġinspect":5644,"Ġthose":5645,"Ġstrikes":5646,"Ġcompanion":5647,"Ġballerinas":5648,"Ġbundle":5649,"Ġhuddled":5650,"Ġsacks":5651,"Ġactivities":5652,"Ġshelter":5653,"Ġmaybe":5654,"Ġbaked":5655,"Ġwatermelons":5656,"point":5657,"Ġmowing":5658,"Ġbarricade":5659,"Ġkickboxing":5660,"Ġavoid":5661,"Ġprayer":5662,"turned":5663,"Ġsnowmobile":5664,"Ġmegaphone":5665,"clad":5666,"fast":5667,"gear":5668,"ogra":5669,"pong":5670,"shes":5671,"zard":5672,"ination":5673,"Ġsuch":5674,"Ġwit":5675,"Ġoil":5676,"Ġpom":5677,"Ġgen":5678,"Ġstates":5679,"Ġshut":5680,"Ġpeer":5681,"Ġrush":5682,"Ġshirted":5683,"Ġchange":5684,"ulance":5685,"Ġparent":5686,"Ġsolo":5687,"Ġarrow":5688,"isters":5689,"Ġsunsh":5690,"Ġsurve":5691,"ubby":5692,"Ġparalle":5693,"Ġwalked":5694,"Ġsingers":5695,"Ġcable":5696,"Ġshed":5697,"Ġbarn":5698,"neck":5699,"Ġfeeds":5700,"yset":5701,"Ġshaves":5702,"Ġsweatshirts":5703,"Ġstrolling":5704,"Ġbreakfast":5705,"Ġquad":5706,"Ġgrills":5707,"Ġbraids":5708,"Ġblocked":5709,"Ġmicroscopes":5710,"Ġoperate":5711,"Ġspeeding":5712,"Ġapproach":5713,"Ġsaxoph":5714,"Ġnapping":5715,"Ġhammering":5716,"Ġcarpent":5717,"Ġopponents":5718,"Ġsuperman":5719,"Ġglan":5720,"Ġcheeks":5721,"Ġmaterials":5722,"Ġstrolls":5723,"Ġheavyset":5724,"Ġassemble":5725,"Ġcharacter":5726,"Ġacrobatic":5727,"Ġadorned":5728,"Ġkimono":5729,"Ġleashes":5730,"Ġeasel":5731,"Ġexplaining":5732,"Ġsunbathing":5733,"Ġyawning":5734,"Ġunfinished":5735,"Ġparasailing":5736,"Ġpolitical":5737,"Ġmemorial":5738,"Ġjohn":5739,"washer":5740,"Ġambulance":5741,"Ġwoven":5742,"Ġancient":5743,"Ġnicely":5744,"Ġperiod":5745,"Ġelementary":5746,"cart":5747,"food":5748,"gling":5749,"olo":5750,"son":5751,"ties":5752,"Ġaward":5753,"iner":5754,"Ġwool":5755,"Ġplow":5756,"Ġmes":5757,"Ġmime":5758,"Ġfuzz":5759,"Ġhusk":5760,"andom":5761,"Ġbows":5762,"icature":5763,"Ġrena":5764,"Ġlie":5765,"ston":5766,"Ġjam":5767,"Ġjazz":5768,"Ġbaggy":5769,"Ġrose":5770,"Ġcaricature":5771,"Ġposed":5772,"Ġrag":5773,"Ġfort":5774,"Ġridden":5775,"lywood":5776,"Ġhanded":5777,"Ġhandles":5778,"igan":5779,"Ġdanger":5780,"Ġphones":5781,"Ġwalker":5782,"umber":5783,"pect":5784,"Ġbarren":5785,"Ġslicing":5786,"Ġprepar":5787,"Ġmats":5788,"velin":5789,"cakes":5790,"Ġfilmed":5791,"Ġvoc":5792,"Ġmedit":5793,"Ġyour":5794,"Ġwrapping":5795,"Ġcookies":5796,"Ġcolumn":5797,"come":5798,"Ġrollerblader":5799,"wheeled":5800,"anged":5801,"Ġdescending":5802,"Ġcampus":5803,"Ġgliding":5804,"Ġfishermen":5805,"Ġpatiently":5806,"issance":5807,"Ġsimilarly":5808,"Ġtrimming":5809,"Ġfetching":5810,"Ġdropping":5811,"Ġmassive":5812,"Ġcrawls":5813,"Ġflex":5814,"Ġskydiving":5815,"Ġoccup":5816,"Ġjavelin":5817,"Ġunloading":5818,"Ġcannon":5819,"Ġthrew":5820,"Ġipod":5821,"Ġconnected":5822,"Ġsooners":5823,"Ġvertical":5824,"Ġhandlebars":5825,"Ġfully":5826,"Ġparallel":5827,"Ġrenaissance":5828,"eing":5829,"eer":5830,"mit":5831,"vation":5832,"Ġtul":5833,"Ġtends":5834,"Ġsight":5835,"Ġok":5836,"Ġour":5837,"held":5838,"Ġann":5839,"Ġdrying":5840,"idated":5841,"Ġreve":5842,"Ġlim":5843,"chief":5844,"Ġrus":5845,"Ġrandom":5846,"Ġcoke":5847,"Ġgrown":5848,"cept":5849,"Ġgraph":5850,"bour":5851,"Ġpoke":5852,"Ġforms":5853,"Ġless":5854,"Ġsnork":5855,"Ġhandheld":5856,"Ġsoil":5857,"Ġscattered":5858,"Ġoffering":5859,"Ġworkmen":5860,"Ġmoon":5861,"Ġguests":5862,"Ġparts":5863,"Ġamp":5864,"Ġsweatpants":5865,"Ġbarking":5866,"Ġexca":5867,"Ġsawing":5868,"Ġladders":5869,"Ġbridal":5870,"Ġweld":5871,"Ġequestri":5872,"Ġrailway":5873,"Ġchased":5874,"Ġpicker":5875,"ifying":5876,"Ġpartner":5877,"Ġtyping":5878,"Ġcoveralls":5879,"Ġenglish":5880,"Ġseafood":5881,"Ġparticipants":5882,"Ġstrings":5883,"Ġleader":5884,"Ġcrib":5885,"Ġrobot":5886,"idential":5887,"Ġdemonstrates":5888,"Ġleafy":5889,"Ġchickens":5890,"Ġsuite":5891,"Ġfocusing":5892,"Ġcabin":5893,"Ġtechnic":5894,"Ġpressure":5895,"Ġstirs":5896,"Ġclutching":5897,"Ġelevated":5898,"Ġexploring":5899,"Ġamericans":5900,"Ġcooler":5901,"hammer":5902,"Ġmaneuver":5903,"Ġsausages":5904,"Ġbarbecuing":5905,"Ġdeserted":5906,"Ġhusband":5907,"Ġcampsite":5908,"Ġabandoned":5909,"Ġfuzzy":5910,"Ġpreparation":5911,"ai":5912,"bull":5913,"die":5914,"ola":5915,"ris":5916,"vor":5917,"what":5918,"Ġaboard":5919,"Ġtor":5920,"Ġted":5921,"Ġself":5922,"Ġwre":5923,"Ġwel":5924,"hear":5925,"Ġinline":5926,"Ġmill":5927,"Ġcling":5928,"Ġgon":5929,"Ġdrop":5930,"oma":5931,"ome":5932,"Ġtoes":5933,"Ġtoast":5934,"Ġdots":5935,"Ġchubby":5936,"Ġjar":5937,"umm":5938,"Ġsmart":5939,"Ġheight":5940,"boats":5941,"Ġdressing":5942,"Ġbackstroke":5943,"Ġupright":5944,"Ġseg":5945,"Ġovercoat":5946,"Ġsomewhat":5947,"Ġheadgear":5948,"Ġbuses":5949,"asting":5950,"Ġlik":5951,"Ġchews":5952,"Ġbrand":5953,"Ġfloppy":5954,"Ġunders":5955,"Ġcats":5956,"Ġflame":5957,"Ġitself":5958,"Ġdilap":5959,"izes":5960,"Ġeleg":5961,"Ġgifts":5962,"Ġshave":5963,"Ġcurrent":5964,"Ġfilm":5965,"Ġcheckout":5966,"Ġclap":5967,"Ġrelay":5968,"Ġviolins":5969,"Ġlegos":5970,"Ġscreens":5971,"hoe":5972,"Ġcelebrates":5973,"Ġhooping":5974,"Ġpackages":5975,"Ġhalter":5976,"Ġmagn":5977,"Ġzom":5978,"Ġmulti":5979,"Ġharnesses":5980,"Ġsimult":5981,"fashion":5982,"Ġpigeon":5983,"Ġthinking":5984,"Ġretrieving":5985,"Ġprincess":5986,"Ġdishwasher":5987,"Ġregister":5988,"Ġtechn":5989,"Ġenclosure":5990,"Ġinstall":5991,"Ġrabbits":5992,"Ġmeasuring":5993,"Ġstruggling":5994,"Ġmarkings":5995,"Ġfleece":5996,"Ġaccep":5997,"Ġvibrant":5998,"Ġxylophone":5999,"Ġmattress":6000,"Ġtulips":6001,"Ġequestrian":6002,"Ġdilapidated":6003,"Ġsimultane":6004,"ah":6005,"glass":6006,"sw":6007,"uce":6008,"yo":6009,"Ġsucking":6010,"Ġwi":6011,"Ġwades":6012,"Ġwicker":6013,"Ġmule":6014,"Ġcush":6015,"Ġga":6016,"Ġfid":6017,"Ġhund":6018,"Ġdyed":6019,"allet":6020,"unte":6021,"etti":6022,"ider":6023,"allic":6024,"Ġrit":6025,"sted":6026,"Ġjan":6027,"Ġwhiteboard":6028,"Ġkore":6029,"seen":6030,"Ġcartoon":6031,"reds":6032,"Ġveter":6033,"Ġseeds":6034,"Ġoverlook":6035,"Ġspir":6036,"Ġfavor":6037,"Ġunison":6038,"Ġunseen":6039,"Ġguiding":6040,"Ġhelped":6041,"Ġbasement":6042,"Ġwindbre":6043,"Ġsheer":6044,"Ġspec":6045,"Ġwheat":6046,"Ġtrainer":6047,"Ġdribbling":6048,"Ġsubmer":6049,"Ġplush":6050,"Ġsnowboards":6051,"Ġfilms":6052,"Ġcrack":6053,"Ġblower":6054,"Ġstrap":6055,"Ġpadded":6056,"Ġpitching":6057,"Ġhappening":6058,"Ġpedals":6059,"Ġformally":6060,"Ġrailings":6061,"Ġmonster":6062,"Ġseeming":6063,"Ġreflecting":6064,"Ġmagic":6065,"Ġpanel":6066,"Ġsumo":6067,"angu":6068,"Ġbouncy":6069,"Ġtugging":6070,"Ġstorm":6071,"Ġexcitedly":6072,"Ġceremon":6073,"Ġeverywhere":6074,"Ġpriest":6075,"Ġconfetti":6076,"Ġcommunic":6077,"Ġremoving":6078,"Ġflea":6079,"Ġspider":6080,"Ġattendant":6081,"Ġvolunte":6082,"Ġchisel":6083,"Ġsearching":6084,"Ġpowder":6085,"Ġscratching":6086,"Ġpurchasing":6087,"Ġstockings":6088,"Ġcoconut":6089,"Ġadolescent":6090,"Ġapparently":6091,"Ġcultural":6092,"Ġtambour":6093,"Ġteddy":6094,"Ġlikely":6095,"fashioned":6096,"00":6097,"bell":6098,"bably":6099,"gn":6100,"made":6101,"muffs":6102,"tling":6103,"ura":6104,"wom":6105,"Ġur":6106,"Ġtip":6107,"Ġsipping":6108,"Ġsamp":6109,"Ġpans":6110,"Ġmick":6111,"len":6112,"rope":6113,"Ġanticip":6114,"Ġoncoming":6115,"Ġdiv":6116,"esus":6117,"Ġtot":6118,"opard":6119,"Ġrehear":6120,"Ġthing":6121,"Ġjesus":6122,"Ġnational":6123,"Ġsitu":6124,"Ġbaking":6125,"vern":6126,"Ġroping":6127,"riers":6128,"Ġtap":6129,"Ġups":6130,"Ġforming":6131,"Ġleopard":6132,"Ġseating":6133,"app":6134,"Ġsolid":6135,"Ġteaches":6136,"Ġscale":6137,"vest":6138,"Ġthemed":6139,"Ġproper":6140,"Ġprobably":6141,"Ġcheers":6142,"Ġkiddie":6143,"Ġarmed":6144,"Ġamish":6145,"Ġdevices":6146,"Ġcathed":6147,"Ġtrio":6148,"Ġexotic":6149,"iven":6150,"Ġdrivers":6151,"Ġveil":6152,"Ġbears":6153,"Ġkites":6154,"Ġmetallic":6155,"Ġhikes":6156,"Ġbreat":6157,"Ġshake":6158,"Ġdrain":6159,"Ġweeds":6160,"Ġconcession":6161,"Ġwinning":6162,"Ġsquad":6163,"Ġdistric":6164,"Ġresidential":6165,"osed":6166,"Ġearmuffs":6167,"Ġcircus":6168,"Ġsleds":6169,"Ġpride":6170,"Ġshaded":6171,"Ġcrut":6172,"Ġbalanced":6173,"Ġ13":6174,"Ġstocking":6175,"Ġzoo":6176,"Ġwetsuits":6177,"Ġmopping":6178,"wheeler":6179,"Ġpeaceful":6180,"Ġcontrols":6181,"Ġfloaties":6182,"Ġstorage":6183,"Ġwarming":6184,"Ġpunk":6185,"Ġdelivery":6186,"working":6187,"Ġnewlywed":6188,"Ġuk":6189,"Ġtuxedos":6190,"Ġpockets":6191,"Ġsepar":6192,"Ġremote":6193,"Ġcashier":6194,"Ġwristband":6195,"Ġsari":6196,"Ġspongebob":6197,"Ġrusty":6198,"Ġeager":6199,"Ġflooded":6200,"Ġdolphin":6201,"Ġpatrons":6202,"Ġvocal":6203,"Ġsimultaneously":6204,"Ġfavorite":6205,"Ġcathedral":6206,"Ġdistrict":6207,"capped":6208,"fl":6209,"fir":6210,"mother":6211,"sm":6212,"wal":6213,"well":6214,"Ġ:":6215,"Ġque":6216,"Ġtelling":6217,"Ġmad":6218,"Ġank":6219,"Ġtook":6220,"andex":6221,"Ġdozen":6222,"Ġrecl":6223,"Ġpeoples":6224,"Ġlumber":6225,"Ġchore":6226,"Ġloll":6227,"otion":6228,"Ġloose":6229,"Ġdownward":6230,"Ġsombre":6231,"Ġcarved":6232,"Ġbuck":6233,"Ġhate":6234,"Ġsnowstorm":6235,"Ġsnowcapped":6236,"xture":6237,"Ġcloses":6238,"Ġarray":6239,"Ġgoats":6240,"Ġsunhat":6241,"Ġwoodland":6242,"Ġhello":6243,"Ġdarkened":6244,"Ġtanned":6245,"Ġsignal":6246,"Ġwinding":6247,"Ġshell":6248,"Ġcaptured":6249,"Ġexit":6250,"Ġdisney":6251,"Ġflowery":6252,"Ġgrins":6253,"Ġbesides":6254,"Ġladen":6255,"Ġcorrid":6256,"Ġcompetes":6257,"Ġcrest":6258,"Ġcreate":6259,"Ġcreates":6260,"Ġeleven":6261,"weed":6262,"Ġcontin":6263,"Ġbreath":6264,"Ġcurling":6265,"empor":6266,"Ġweights":6267,"Ġcarried":6268,"Ġintric":6269,"Ġmilling":6270,"Ġpaintbrush":6271,"Ġcontains":6272,"Ġ11":6273,"Ġprofess":6274,"Ġslot":6275,"Ġsculptures":6276,"Ġkinds":6277,"Ġpretends":6278,"Ġcooked":6279,"Ġpairs":6280,"Ġrounds":6281,"Ġfeatures":6282,"Ġextrem":6283,"Ġcasts":6284,"Ġrubble":6285,"Ġmessage":6286,"Ġdesigned":6287,"Ġreceives":6288,"Ġexercises":6289,"Ġsailboats":6290,"Ġdefender":6291,"Ġrecre":6292,"Ġgrandmother":6293,"Ġliquor":6294,"Ġbarrels":6295,"Ġelectronics":6296,"Ġcabinet":6297,"Ġmuzzles":6298,"Ġwakeboarding":6299,"Ġcompetitors":6300,"Ġhopping":6301,"Ġarrange":6302,"Ġarranged":6303,"Ġseesaw":6304,"Ġhauling":6305,"Ġarchitecture":6306,"Ġbuttons":6307,"Ġseason":6308,"Ġpuzzle":6309,"Ġdepicting":6310,"Ġdominoes":6311,"Ġdestination":6312,"Ġstrawberry":6313,"Ġdessert":6314,"semble":6315,"Ġcyl":6316,"Ġhundreds":6317,"Ġritual":6318,"Ġjanitor":6319,"Ġceremonial":6320,"Ġlollip":6321,"Ġsombrero":6322,"Ġextremely":6323,"hirt":6324,"ware":6325,"writ":6326,"Ġult":6327,"Ġsure":6328,"Ġbong":6329,"Ġpuffy":6330,"Ġmu":6331,"Ġmel":6332,"Ġcem":6333,"rown":6334,"Ġany":6335,"arat":6336,"Ġgiven":6337,"Ġones":6338,"Ġhides":6339,"Ġdent":6340,"Ġdental":6341,"enger":6342,"atula":6343,"Ġshing":6344,"Ġtwent":6345,"Ġlangu":6346,"Ġrig":6347,"Ġchip":6348,"Ġbale":6349,"Ġlost":6350,"Ġbeating":6351,"Ġhero":6352,"Ġtalent":6353,"boy":6354,"Ġbackward":6355,"Ġrafts":6356,"Ġlegged":6357,"Ġovercast":6358,"Ġsomeones":6359,"Ġcond":6360,"Ġspandex":6361,"Ġspatula":6362,"Ġtravers":6363,"Ġscant":6364,"Ġmoss":6365,"Ġunit":6366,"teen":6367,"Ġcombat":6368,"Ġliber":6369,"antic":6370,"Ġtheme":6371,"Ġproc":6372,"Ġcause":6373,"Ġconstructing":6374,"Ġsash":6375,"Ġsalad":6376,"Ġsurroundings":6377,"Ġartific":6378,"Ġcompetitor":6379,"corn":6380,"Ġviews":6381,"Ġraining":6382,"Ġcrash":6383,"Ġviewed":6384,"Ġsilk":6385,"Ġstead":6386,"Ġpotatoes":6387,"Ġbusinessmen":6388,"Ġpedal":6389,"Ġtromb":6390,"Ġviolinist":6391,"Ġtowed":6392,"Ġcardigan":6393,"Ġprotect":6394,"hole":6395,"Ġpiercing":6396,"Ġdaily":6397,"Ġassisting":6398,"Ġtackles":6399,"Ġpretz":6400,"Ġtongs":6401,"Ġfeathered":6402,"Ġdonkeys":6403,"Ġwheelchairs":6404,"Ġrubs":6405,"Ġmessenger":6406,"Ġpopcorn":6407,"Ġbilli":6408,"Ġcarpeted":6409,"Ġtightrope":6410,"Ġheadscarves":6411,"Ġelephants":6412,"Ġexhibition":6413,"Ġbagpipe":6414,"Ġawait":6415,"Ġpeeks":6416,"Ġgeese":6417,"Ġtickets":6418,"Ġbronze":6419,"Ġcongregate":6420,"Ġalcoholic":6421,"Ġconcentrating":6422,"Ġcubicle":6423,"Ġarabic":6424,"Ġlettering":6425,"Ġobscured":6426,"Ġhamburgers":6427,"Ġborder":6428,"Ġtravelers":6429,"Ġgallo":6430,"Ġhorizontal":6431,"Ġlavender":6432,"drawn":6433,"Ġdetermin":6434,"Ġgoofy":6435,"Ġdiaper":6436,"Ġreclining":6437,"Ġsunshine":6438,"Ġgraphic":6439,"Ġpokemon":6440,"Ġtechnician":6441,"Ġgondo":6442,"Ġkorean":6443,"Ġwindbreaker":6444,"Ġsubmerged":6445,"woman":6446,"first":6447,"Ġcorridor":6448,"Ġultimate":6449,"Ġscantily":6450,"Ġliberty":6451,"bra":6452,"gun":6453,"ique":6454,"lits":6455,"wling":6456,"yond":6457,"Ġends":6458,"Ġaid":6459,"Ġsorts":6460,"Ġsisters":6461,"anting":6462,"anke":6463,"Ġpear":6464,"Ġpam":6465,"Ġpinned":6466,"isk":6467,"Ġansw":6468,"Ġgum":6469,"Ġgay":6470,"Ġhilly":6471,"Ġisra":6472,"Ġtopped":6473,"Ġdoc":6474,"Ġtwin":6475,"Ġboston":6476,"Ġyanke":6477,"Ġplaypen":6478,"change":6479,"Ġrising":6480,"wns":6481,"stal":6482,"Ġbage":6483,"Ġholes":6484,"Ġgirlfriend":6485,"Ġfrolic":6486,"Ġbeyond":6487,"cement":6488,"Ġstrewn":6489,"Ġlaunch":6490,"vey":6491,"Ġket":6492,"Ġrake":6493,"Ġlemon":6494,"Ġbud":6495,"Ġbug":6496,"Ġvast":6497,"Ġmac":6498,"Ġspi":6499,"Ġsplits":6500,"Ġtrays":6501,"Ġhandic":6502,"Ġwaff":6503,"shore":6504,"Ġclosing":6505,"Ġunident":6506,"Ġunited":6507,"Ġunwra":6508,"Ġheadfirst":6509,"Ġguitarists":6510,"Ġdangling":6511,"Ġphys":6512,"ggers":6513,"Ġproced":6514,"Ġswimwear":6515,"Ġbaseman":6516,"Ġexits":6517,"Ġmarina":6518,"Ġapparat":6519,"Ġagility":6520,"Ġdisco":6521,"Ġobama":6522,"Ġbattling":6523,"Ġpastries":6524,"Ġpassion":6525,"Ġskipping":6526,"Ġbearing":6527,"Ġbowtie":6528,"Ġjogger":6529,"Ġplu":6530,"Ġbetter":6531,"Ġwrite":6532,"Ġsteer":6533,"Ġgloved":6534,"Ġstraps":6535,"Ġpitbull":6536,"Ġresort":6537,"Ġclas":6538,"Ġearb":6539,"Ġdocked":6540,"Ġdirects":6541,"Ġonlooker":6542,"Ġmasked":6543,"Ġtubes":6544,"Ġcali":6545,"Ġsmock":6546,"Ġshady":6547,"Ġprotester":6548,"Ġartistic":6549,"Ġengaging":6550,"hoop":6551,"Ġslopes":6552,"Ġoperation":6553,"Ġpretend":6554,"Ġrounding":6555,"Ġwineglasses":6556,"angle":6557,"Ġcobbled":6558,"Ġpopping":6559,"Ġpositioned":6560,"Ġdelic":6561,"Ġrecently":6562,"Ġcommut":6563,"Ġwarri":6564,"Ġpowerpoint":6565,"Ġvacation":6566,"Ġkeeps":6567,"Ġkeeping":6568,"Ġemerges":6569,"Ġgowns":6570,"paved":6571,"Ġrugs":6572,"Ġslab":6573,"Ġinterested":6574,"Ġdotted":6575,"Ġawaits":6576,"Ġwakeboarder":6577,"Ġconfused":6578,"Ġangle":6579,"Ġsniffs":6580,"Ġimport":6581,"Ġtomato":6582,"Ġrecords":6583,"Ġlantern":6584,"Ġkimonos":6585,"Ġgrima":6586,"Ġferry":6587,"Ġstained":6588,"Ġpatriotic":6589,"Ġsymbols":6590,"Ġbringing":6591,"Ġwielding":6592,"Ġponch":6593,"Ġculture":6594,"Ġitalian":6595,"Ġquestion":6596,"Ġbuddhist":6597,"Ġnoodles":6598,"Ġpomp":6599,"Ġcushion":6600,"Ġmickey":6601,"Ġcrutches":6602,"emporary":6603,"Ġprofessor":6604,"Ġartificial":6605,"action":6606,"ere":6607,"ebra":6608,"lan":6609,"lift":6610,"nd":6611,"sion":6612,"tim":6613,"Ġsin":6614,"Ġsalm":6615,"Ġoll":6616,"rees":6617,"Ġpoun":6618,"Ġcinder":6619,"ism":6620,"Ġgain":6621,"Ġginger":6622,"Ġfut":6623,"Ġhon":6624,"Ġdart":6625,"Ġditch":6626,"oming":6627,"ory":6628,"etery":6629,"Ġtwister":6630,"Ġbowing":6631,"Ġyear":6632,"Ġrather":6633,"Ġrustic":6634,"Ġrises":6635,"Ġner":6636,"Ġloaf":6637,"eller":6638,"Ġfrowning":6639,"Ġsmelling":6640,"Ġhaired":6641,"Ġtagged":6642,"Ġkilts":6643,"Ġpail":6644,"Ġpavil":6645,"Ġpoking":6646,"Ġvase":6647,"Ġmaster":6648,"blem":6649,"Ġbrownish":6650,"Ġcondition":6651,"Ġconvey":6652,"Ġsolder":6653,"Ġscope":6654,"icking":6655,"Ġoffers":6656,"Ġpercuss":6657,"Ġworkman":6658,"ffy":6659,"Ġunion":6660,"Ġlives":6661,"Ġaccess":6662,"Ġadv":6663,"Ġadvent":6664,"Ġchew":6665,"umbling":6666,"Ġpurs":6667,"Ġclimbed":6668,"Ġarmor":6669,"Ġensemble":6670,"Ġcables":6671,"agle":6672,"Ġcapri":6673,"Ġcaptain":6674,"Ġexchange":6675,"Ġsales":6676,"Ġmari":6677,"ortment":6678,"Ġbats":6679,"Ġfrance":6680,"Ġkitty":6681,"Ġkitten":6682,"scope":6683,"Ġkneel":6684,"Ġafricans":6685,"Ġsnowboarders":6686,"Ġeyed":6687,"Ġhipp":6688,"Ġcurious":6689,"Ġstrad":6690,"Ġalike":6691,"Ġstruggles":6692,"Ġknow":6693,"Ġpiled":6694,"Ġbraz":6695,"Ġtrous":6696,"Ġsurfboards":6697,"Ġcollide":6698,"Ġcoverings":6699,"Ġstarts":6700,"Ġstarring":6701,"Ġtowels":6702,"Ġgymnastic":6703,"Ġseashore":6704,"Ġstreamers":6705,"Ġparticipates":6706,"Ġprofile":6707,"Ġassortment":6708,"Ġfighters":6709,"Ġwatersk":6710,"Ġcentral":6711,"Ġzebra":6712,"Ġwashington":6713,"Ġguarding":6714,"Ġpancake":6715,"Ġactors":6716,"Ġdonations":6717,"Ġextra":6718,"Ġextends":6719,"Ġappearing":6720,"Ġdunes":6721,"Ġdunking":6722,"Ġknitted":6723,"Ġrubbing":6724,"Ġjuggler":6725,"Ġinterior":6726,"Ġamused":6727,"Ġembraces":6728,"Ġlounges":6729,"Ġdefensive":6730,"Ġtightly":6731,"Ġparachuting":6732,"Ġvillagers":6733,"Ġscruffy":6734,"kerchief":6735,"Ġwigs":6736,"Ġorganized":6737,"Ġattraction":6738,"Ġtricycles":6739,"Ġpumpkins":6740,"Ġstyled":6741,"Ġlatin":6742,"ippers":6743,"Ġimpro":6744,"Ġminiv":6745,"Ġpoodles":6746,"Ġsparklers":6747,"Ġshielding":6748,"Ġhooked":6749,"Ġadorable":6750,"Ġjudges":6751,"Ġapparel":6752,"Ġturtleneck":6753,"Ġleashed":6754,"Ġsaris":6755,"Ġoversized":6756,"Ġhistoric":6757,"Ġaddresses":6758,"Ġgrasping":6759,"Ġcontemplating":6760,"Ġsurgeons":6761,"Ġassembling":6762,"Ġpatrol":6763,"Ġpopsicle":6764,"Ġblindfolded":6765,"Ġcrystal":6766,"Ġfluore":6767,"Ġsaxophones":6768,"Ġassembled":6769,"Ġhusky":6770,"Ġdangerous":6771,"Ġwelcome":6772,"Ġelegant":6773,"Ġmagnifying":6774,"Ġseemingly":6775,"Ġbreathing":6776,"Ġankle":6777,"Ġcemetery":6778,"Ġpamph":6779,"Ġisrael":6780,"Ġapparatus":6781,"Ġimportant":6782,"Ġsalmon":6783,"Ġpercussion":6784,"circ":6785,"five":6786,"homa":6787,"nder":6788,"ody":6789,"tand":6790,"Ġawk":6791,"Ġtend":6792,"Ġtesting":6793,"Ġwro":6794,"Ġincoming":6795,"Ġmallet":6796,"rot":6797,"roning":6798,"Ġanvil":6799,"Ġgrip":6800,"Ġfier":6801,"Ġhid":6802,"Ġdut":6803,"Ġdue":6804,"Ġdug":6805,"Ġdalm":6806,"lahoma":6807,"una":6808,"orter":6809,"Ġtote":6810,"idge":6811,"Ġshapes":6812,"Ġdober":6813,"Ġretail":6814,"upe":6815,"ups":6816,"Ġplayhouse":6817,"Ġthread":6818,"Ġchaps":6819,"Ġbas":6820,"Ġbaker":6821,"Ġhol":6822,"Ġcola":6823,"Ġbeans":6824,"Ġbeagle":6825,"velo":6826,"Ġka":6827,"achi":6828,"Ġbackhoe":6829,"Ġfolder":6830,"Ġraw":6831,"Ġskill":6832,"Ġlittered":6833,"Ġridge":6834,"Ġmache":6835,"Ġmaker":6836,"Ġorders":6837,"Ġoverturned":6838,"Ġspo":6839,"aint":6840,"Ġhandkerchief":6841,"Ġsoars":6842,"Ġsoaking":6843,"Ġsoaked":6844,"Ġarched":6845,"Ġscri":6846,"Ġscary":6847,"Ġscared":6848,"ista":6849,"isted":6850,"Ġoffer":6851,"Ġgoers":6852,"Ġmos":6853,"Ġhairy":6854,"Ġhairnet":6855,"Ġclip":6856,"Ġclust":6857,"Ġfourth":6858,"Ġpregn":6859,"Ġprom":6860,"Ġsuitcases":6861,"Ġener":6862,"Ġexe":6863,"Ġexcept":6864,"Ġdisk":6865,"stride":6866,"Ġripped":6867,"Ġcler":6868,"ronts":6869,"Ġindex":6870,"Ġjoin":6871,"Ġstairwell":6872,"Ġnoses":6873,"Ġdramat":6874,"Ġstudies":6875,"Ġshould":6876,"Ġsquat":6877,"Ġcrab":6878,"Ġgraffitied":6879,"armac":6880,"Ġpotted":6881,"Ġknives":6882,"Ġclause":6883,"Ġcutoff":6884,"Ġpartly":6885,"Ġshots":6886,"Ġsledge":6887,"Ġstarbu":6888,"Ġmeats":6889,"Ġseaweed":6890,"Ġironing":6891,"Ġassorted":6892,"Ġzo":6893,"Ġseattle":6894,"Ġkayakers":6895,"Ġcloths":6896,"Ġframes":6897,"Ġspeedo":6898,"Ġwineglass":6899,"Ġmixes":6900,"angular":6901,"Ġpengu":6902,"Ġfiring":6903,"Ġtransporting":6904,"Ġfocuses":6905,"Ġbrooms":6906,"Ġparachutes":6907,"Ġdelivering":6908,"Ġangels":6909,"Ġrooster":6910,"Ġmechanic":6911,"Ġtutus":6912,"Ġbounds":6913,"Ġjudge":6914,"Ġselection":6915,"Ġchiseling":6916,"Ġrabbit":6917,"estern":6918,"Ġshrub":6919,"Ġnavigates":6920,"Ġeagle":6921,"Ġcockpit":6922,"Ġsolitary":6923,"Ġsymbol":6924,"Ġskelet":6925,"Ġslowly":6926,"Ġweapon":6927,"Ġskimpy":6928,"Ġdandelion":6929,"Ġescape":6930,"flowers":6931,"Ġmesh":6932,"Ġmeditating":6933,"Ġoklahoma":6934,"Ġwelds":6935,"Ġcurrently":6936,"Ġaccepting":6937,"Ġsamples":6938,"Ġreclines":6939,"Ġintricate":6940,"Ġlanguage":6941,"Ġgondola":6942,"Ġkettle":6943,"Ġearbuds":6944,"Ġconveyor":6945,"Ġbrazil":6946,"Ġfluorescent":6947,"Ġawkward":6948,"Ġpregnant":6949,"Ġstarbucks":6950,"ben":6951,"blo":6952,"care":6953,"game":6954,"high":6955,"ja":6956,"mic":6957,"nie":6958,"nia":6959,"orous":6960,"oscope":6961,"ued":6962,"Ġaer":6963,"Ġairl":6964,"Ġtet":6965,"Ġtilted":6966,"Ġsed":6967,"Ġwiz":6968,"Ġoar":6969,"het":6970,"Ġinse":6971,"Ġpleas":6972,"Ġmoo":6973,"lease":6974,"Ġanch":6975,"Ġglow":6976,"Ġhuts":6977,"Ġshit":6978,"race":6979,"sstand":6980,"ico":6981,"ersa":6982,"step":6983,"Ġchic":6984,"Ġchallen":6985,"Ġchanging":6986,"Ġjug":6987,"Ġjets":6988,"Ġyoungsters":6989,"Ġloud":6990,"Ġblacksm":6991,"Ġcob":6992,"Ġbee":6993,"Ġbeaded":6994,"illet":6995,"Ġroman":6996,"rimmed":6997,"Ġash":6998,"Ġaside":6999,"Ġlamb":7000,"Ġherd":7001,"keep":7002,"Ġgrain":7003,"Ġpokes":7004,"Ġpoker":7005,"Ġpoised":7006,"Ġrav":7007,"Ġford":7008,"Ġleis":7009,"Ġbuys":7010,"Ġswamp":7011,"Ġvel":7012,"Ġvine":7013,"ford":7014,"fornia":7015,"Ġbroch":7016,"Ġsnaps":7017,"Ġoverh":7018,"Ġconven":7019,"Ġconvert":7020,"Ġspending":7021,"Ġsnowbank":7022,"igator":7023,"shot":7024,"Ġarcher":7025,"Ġwalkers":7026,"quins":7027,"Ġdarker":7028,"aler":7029,"Ġbarriers":7030,"ago":7031,"eyed":7032,"Ġflipped":7033,"Ġexha":7034,"Ġtrek":7035,"Ġpastry":7036,"Ġgrin":7037,"Ġgrinning":7038,"play":7039,"nyrd":7040,"Ġcowgirl":7041,"Ġcartwheel":7042,"Ġmeter":7043,"Ġturb":7044,"Ġcontact":7045,"Ġpulley":7046,"Ġweigh":7047,"Ġwelder":7048,"Ġnewsstand":7049,"Ġbottled":7050,"deep":7051,"Ġentry":7052,"Ġstrong":7053,"Ġgarments":7054,"Ġpreser":7055,"Ġmothers":7056,"Ġstructures":7057,"Ġbanks":7058,"Ġcircles":7059,"Ġquart":7060,"climb":7061,"Ġtrot":7062,"Ġsweet":7063,"Ġburgers":7064,"Ġ19":7065,"Ġwashed":7066,"Ġcanoeing":7067,"Ġdrawings":7068,"Ġprofessionals":7069,"Ġobstacles":7070,"Ġdemol":7071,"Ġdunks":7072,"Ġmops":7073,"Ġpossible":7074,"Ġfingern":7075,"Ġentertainment":7076,"Ġstools":7077,"Ġkeys":7078,"Ġdescend":7079,"Ġpopula":7080,"Ġowners":7081,"arao":7082,"Ġglider":7083,"Ġlamps":7084,"Ġexpressions":7085,"Ġemerging":7086,"Ġinstructions":7087,"Ġsupervis":7088,"Ġregion":7089,"Ġlanes":7090,"Ġleotards":7091,"Ġaims":7092,"Ġbrothers":7093,"Ġmcdonalds":7094,"Ġmascara":7095,"Ġcitizen":7096,"Ġstruggle":7097,"Ġlimbs":7098,"Ġhamburger":7099,"Ġascending":7100,"Ġrespon":7101,"Ġmingle":7102,"Ġstrumming":7103,"Ġvaulting":7104,"Ġproudly":7105,"Ġgreeting":7106,"painted":7107,"Ġdamaged":7108,"Ġschoolgirls":7109,"bags":7110,"Ġrefresh":7111,"Ġoccupied":7112,"Ġexcav":7113,"Ġsegway":7114,"Ġundershirt":7115,"Ġzombie":7116,"Ġwii":7117,"Ġrehearsing":7118,"Ġvocalist":7119,"Ġdentist":7120,"Ġbilliards":7121,"Ġdetermined":7122,"Ġcalifornia":7123,"Ġpavilion":7124,"Ġminivan":7125,"Ġexecut":7126,"Ġchallenge":7127,"Ġblacksmith":7128,"aid":7129,"ass":7130,"bl":7131,"cle":7132,"gas":7133,"ien":7134,"iver":7135,"own":7136,"pipe":7137,"thing":7138,"tation":7139,"weds":7140,"xim":7141,"Ġera":7142,"Ġalo":7143,"Ġactive":7144,"Ġti":7145,"Ġtink":7146,"Ġsights":7147,"Ġsips":7148,"Ġwade":7149,"Ġwestern":7150,"Ġoars":7151,"Ġbins":7152,"Ġbinder":7153,"here":7154,"Ġmight":7155,"robe":7156,"arts":7157,"Ġgy":7158,"Ġgap":7159,"Ġglowing":7160,"Ġdye":7161,"Ġmanip":7162,"Ġmanual":7163,"Ġisle":7164,"omot":7165,"Ġsteth":7166,"Ġshined":7167,"Ġbout":7168,"Ġpea":7169,"Ġlid":7170,"Ġjunk":7171,"Ġnon":7172,"Ġnude":7173,"Ġbales":7174,"Ġbagg":7175,"Ġbases":7176,"Ġlocked":7177,"otch":7178,"Ġwallet":7179,"Ġbeaker":7180,"Ġrom":7181,"ried":7182,"Ġgraying":7183,"Ġrapp":7184,"Ġrakes":7185,"Ġbucked":7186,"Ġcroche":7187,"Ġgreenhouse":7188,"Ġskillet":7189,"Ġsexy":7190,"lons":7191,"Ġconso":7192,"aining":7193,"Ġshouting":7194,"Ġrocket":7195,"Ġguides":7196,"Ġwoodworking":7197,"Ġproje":7198,"Ġroadwork":7199,"Ġflotation":7200,"Ġmush":7201,"Ġstrips":7202,"Ġattaching":7203,"Ġfootbr":7204,"Ġgates":7205,"Ġsave":7206,"Ġsauna":7207,"Ġslung":7208,"Ġalligator":7209,"Ġsleigh":7210,"type":7211,"Ġpassage":7212,"Ġpasserby":7213,"Ġmature":7214,"Ġcellular":7215,"scotch":7216,"Ġbookbag":7217,"Ġdiag":7218,"Ġjoggers":7219,"Ġmetrop":7220,"Ġbackpacker":7221,"Ġdrumsticks":7222,"acts":7223,"Ġshoesh":7224,"Ġweb":7225,"Ġsquinting":7226,"Ġcrafting":7227,"Ġstoplight":7228,"Ġbeauty":7229,"Ġblowtor":7230,"Ġramps":7231,"Ġentire":7232,"Ġnothing":7233,"Ġresear":7234,"Ġbulls":7235,"Ġbanquet":7236,"Ġposts":7237,"Ġquilt":7238,"Ġdecorating":7239,"Ġfolk":7240,"Ġlifegu":7241,"Ġlocomot":7242,"cured":7243,"Ġhammers":7244,"Ġvisitors":7245,"Ġprojected":7246,"Ġfighter":7247,"Ġfairy":7248,"Ġtelescopes":7249,"Ġseeing":7250,"Ġexter":7251,"Ġextending":7252,"Ġharnessed":7253,"Ġdollhouse":7254,"Ġdescends":7255,"Ġchops":7256,"Ġreceive":7257,"Ġtossed":7258,"Ġsails":7259,"Ġdefense":7260,"Ġtaxis":7261,"Ġpunches":7262,"Ġretrieves":7263,"Ġ200":7264,"Ġtechno":7265,"Ġbreakdancer":7266,"Ġpresses":7267,"Ġparasol":7268,"Ġnewlyweds":7269,"Ġmerchant":7270,"Ġdrops":7271,"Ġhopscotch":7272,"ipper":7273,"foam":7274,"Ġshields":7275,"Ġbracelets":7276,"Ġselecting":7277,"Ġsmoothing":7278,"Ġoccur":7279,"Ġreturn":7280,"Ġshrubs":7281,"Ġhistorical":7282,"Ġaddressing":7283,"Ġsurgeon":7284,"Ġtaste":7285,"Ġadmires":7286,"Ġirish":7287,"Ġrimmed":7288,"Ġcarpenter":7289,"Ġrevealing":7290,"Ġinstalling":7291,"Ġtambourine":7292,"Ġlollipop":7293,"Ġpretzels":7294,"Ġunidentified":7295,"Ġprocedure":7296,"Ġtrousers":7297,"Ġdoberman":7298,"Ġclipboard":7299,"Ġskeleton":7300,"Ġchicago":7301,"keeper":7302,"Ġconvenience":7303,"Ġconvertible":7304,"Ġexhaust":7305,"blue":7306,"Ġmanipula":7307,"Ġmetropol":7308,"Ġblowtorch":7309,"baller":7310,"dies":7311,"father":7312,"hy":7313,"iors":7314,"tors":7315,"uish":7316,"vet":7317,"Ġ$":7318,"Ġagg":7319,"Ġaffe":7320,"Ġtell":7321,"Ġsip":7322,"Ġwaring":7323,"Ġwanting":7324,"Ġbree":7325,"rer":7326,"real":7327,"Ġpal":7328,"Ġcoun":7329,"Ġfoo":7330,"Ġonce":7331,"Ġdren":7332,"Ġdip":7333,"Ġdivid":7334,"omas":7335,"Ġstudy":7336,"ord":7337,"Ġshr":7338,"anda":7339,"icles":7340,"Ġpeaks":7341,"Ġrect":7342,"Ġrequ":7343,"Ġlla":7344,"Ġnin":7345,"Ġnint":7346,"Ġsites":7347,"Ġcos":7348,"Ġgrowing":7349,"Ġgrowling":7350,"Ġroot":7351,"Ġsomersa":7352,"ressed":7353,"Ġwatercraft":7354,"Ġpaw":7355,"Ġpage":7356,"Ġpause":7357,"Ġworship":7358,"Ġpour":7359,"tled":7360,"Ġforce":7361,"Ġvess":7362,"Ġviet":7363,"Ġseal":7364,"Ġsews":7365,"Ġsecured":7366,"Ġpersonal":7367,"Ġspout":7368,"ains":7369,"Ġsour":7370,"Ġscoring":7371,"Ġperfe":7372,"Ġworkben":7373,"Ġdrunk":7374,"endo":7375,"Ġpharmac":7376,"Ġcakes":7377,"Ġdeere":7378,"Ġsweaty":7379,"Ġconstructed":7380,"Ġafro":7381,"Ġgated":7382,"Ġsafe":7383,"Ġmarches":7384,"Ġslip":7385,"Ġslender":7386,"Ġcanned":7387,"Ġpastel":7388,"Ġrestaurants":7389,"olf":7390,"Ġmatches":7391,"Ġdiam":7392,"Ġkitchenaid":7393,"Ġcord":7394,"acent":7395,"Ġ25":7396,"Ġclassical":7397,"Ġsquares":7398,"Ġdistra":7399,"Ġaudio":7400,"Ġsteal":7401,"bery":7402,"Ġstationary":7403,"Ġ30":7404,"Ġfunction":7405,"Ġlanded":7406,"Ġlandsc":7407,"Ġdiners":7408,"Ġdecoration":7409,"Ġpartying":7410,"Ġtroops":7411,"Ġrepres":7412,"Ġvisit":7413,"Ġparticipant":7414,"Ġtunic":7415,"Ġmulticolor":7416,"Ġfencers":7417,"Ġwindowsill":7418,"Ġbookshe":7419,"Ġfinishes":7420,"Ġeyeb":7421,"Ġdonuts":7422,"Ġsprints":7423,"Ġpetals":7424,"Ġadjacent":7425,"Ġintern":7426,"Ġbounces":7427,"Ġchoppy":7428,"Ġwarning":7429,"Ġweaves":7430,"Ġruss":7431,"Ġtrimmed":7432,"Ġsaluting":7433,"Ġleaned":7434,"Ġiced":7435,"Ġoddly":7436,"Ġsupported":7437,"Ġcrowns":7438,"Ġpirates":7439,"Ġsatche":7440,"Ġcongregating":7441,"handed":7442,"Ġsquirting":7443,"Ġconcentrates":7444,"Ġemotion":7445,"Ġscratches":7446,"Ġenthusiastic":7447,"Ġenthusiastically":7448,"Ġsausage":7449,"Ġwindsurfer":7450,"Ġcoconuts":7451,"Ġbonfire":7452,"Ġarrive":7453,"Ġassembly":7454,"Ġsample":7455,"Ġcould":7456,"Ġflashlight":7457,"Ġsqueezing":7458,"Ġgorilla":7459,"Ġreviewing":7460,"Ġattentively":7461,"Ġskyscrapers":7462,"Ġgener":7463,"olog":7464,"Ġannoun":7465,"Ġlimo":7466,"Ġtorches":7467,"ummy":7468,"Ġdiverse":7469,"Ġeagerly":7470,"Ġshingles":7471,"Ġprocession":7472,"Ġtrombone":7473,"Ġhandicapped":7474,"Ġmariachi":7475,"Ġwaterskier":7476,"Ġhidden":7477,"Ġshrubbery":7478,"Ġwizard":7479,"Ġstethoscope":7480,"Ġmushroom":7481,"Ġfootbridge":7482,"Ġshoeshine":7483,"Ġexterior":7484,"Ġtechnolo":7485,"Ġworkbench":7486,"cis":7487,"cier":7488,"ccas":7489,"dges":7490,"ek":7491,"easter":7492,"eeing":7493,"gles":7494,"ij":7495,"jack":7496,"ration":7497,"water":7498,"Ġking":7499,"Ġtide":7500,"Ġtemporary":7501,"Ġsush":7502,"Ġsuds":7503,"Ġwok":7504,"reading":7505,"Ġinvest":7506,"itan":7507,"itation":7508,"Ġmp":7509,"length":7510,"iser":7511,"rofoam":7512,"Ġfills":7513,"Ġhig":7514,"Ġdil":7515,"Ġduff":7516,"Ġdorm":7517,"atic":7518,"omet":7519,"ories":7520,"onies":7521,"earing":7522,"eding":7523,"Ġboating":7524,"Ġyet":7525,"Ġplac":7526,"Ġly":7527,"Ġlinger":7528,"Ġnuts":7529,"Ġlovers":7530,"Ġlovely":7531,"Ġhovering":7532,"Ġcolon":7533,"Ġfrog":7534,"ume":7535,"umably":7536,"Ġbegging":7537,"Ġoutfield":7538,"Ġoutcro":7539,"Ġever":7540,"Ġsmok":7541,"Ġtasks":7542,"Ġgrace":7543,"Ġgrave":7544,"Ġken":7545,"Ġbacklit":7546,"Ġforrest":7547,"Ġneat":7548,"Ġcroquet":7549,"Ġvers":7550,"Ġlitter":7551,"Ġridding":7552,"Ġsex":7553,"Ġspik":7554,"Ġtram":7555,"Ġhandful":7556,"Ġhandmade":7557,"Ġsole":7558,"ppers":7559,"Ġscre":7560,"Ġcamper":7561,"Ġworked":7562,"Ġgovern":7563,"dled":7564,"Ġaircraft":7565,"Ġperformed":7566,"Ġrocker":7567,"Ġtaller":7568,"uddling":7569,"ashes":7570,"ques":7571,"Ġlizard":7572,"Ġcompletes":7573,"Ġattired":7574,"Ġfootballer":7575,"Ġdealer":7576,"pective":7577,"Ġdaylight":7578,"Ġtribe":7579,"Ġspeakers":7580,"Ġcapt":7581,"Ġappla":7582,"Ġfists":7583,"Ġdisp":7584,"Ġslices":7585,"Ġfires":7586,"Ġbatting":7587,"Ġforefront":7588,"Ġlighthouse":7589,"screen":7590,"Ġindic":7591,"Ġcowork":7592,"Ġjobs":7593,"Ġcorp":7594,"Ġcords":7595,"odile":7596,"Ġblown":7597,"wered":7598,"cock":7599,"Ġnovel":7600,"Ġcurled":7601,"Ġdrags":7602,"Ġlaps":7603,"Ġhomes":7604,"Ġsquir":7605,"dered":7606,"Ġcereal":7607,"Ġcupcakes":7608,"Ġhomework":7609,"Ġalb":7610,"Ġbangs":7611,"Ġcutout":7612,"Ġpedaling":7613,"Ġbarely":7614,"Ġquite":7615,"ucked":7616,"Ġputt":7617,"Ġrelaxed":7618,"Ġfolks":7619,"Ġreporter":7620,"Ġcrus":7621,"Ġmedals":7622,"Ġprotecting":7623,"Ġmirrored":7624,"Ġtypewrit":7625,"Ġprofessionally":7626,"Ġembro":7627,"Ġmustard":7628,"Ġbalconies":7629,"Ġportion":7630,"Ġchested":7631,"Ġreferees":7632,"Ġstacking":7633,"Ġsupporting":7634,"Ġnaps":7635,"Ġpigs":7636,"Ġboulders":7637,"Ġdollar":7638,"Ġdescri":7639,"Ġpajama":7640,"Ġdefending":7641,"Ġdefenders":7642,"Ġgrandfather":7643,"Ġglides":7644,"Ġleafless":7645,"Ġretrieve":7646,"Ġmarriage":7647,"Ġinstructing":7648,"Ġgamb":7649,"Ġsandwic":7650,"atown":7651,"Ġdecide":7652,"Ġstyrofoam":7653,"Ġchinatown":7654,"Ġcrayon":7655,"Ġmannequins":7656,"Ġcurtains":7657,"Ġsquirted":7658,"Ġmainly":7659,"Ġknock":7660,"Ġinterviewed":7661,"Ġlatex":7662,"Ġquietly":7663,"Ġpurchases":7664,"Ġstainless":7665,"Ġgazebo":7666,"Ġwindsurfing":7667,"Ġpatrick":7668,"Ġhearts":7669,"Ġmittens":7670,"Ġglacier":7671,"Ġcrocodile":7672,"Ġcaptures":7673,"Ġglancing":7674,"walks":7675,"Ġbongo":7676,"Ġonesie":7677,"Ġmossy":7678,"Ġgalloping":7679,"Ġyankees":7680,"Ġwarrior":7681,"Ġpompoms":7682,"Ġollie":7683,"Ġconditions":7684,"Ġhippie":7685,"Ġweighing":7686,"Ġdrenched":7687,"Ġnintendo":7688,"Ġvessel":7689,"Ġvietnam":7690,"Ġperfect":7691,"Ġdiamond":7692,"eastern":7693,"Ġsushi":7694,"Ġinvestig":7695,"Ġdilig":7696,"Ġduffel":7697,"Ġspiked":7698,"but":7699,"bound":7700,"bread":7701,"ees":7702,"evil":7703,"fronts":7704,"gin":7705,"hats":7706,"mm":7707,"mates":7708,"mallow":7709,"nal":7710,"rup":7711,"shed":7712,"uis":7713,"wer":7714,"wise":7715,"zens":7716,"Ġaust":7717,"Ġawe":7718,"inary":7719,"Ġtiss":7720,"Ġtucked":7721,"Ġsons":7722,"Ġsize":7723,"Ġoh":7724,"anse":7725,"Ġbone":7726,"Ġbillow":7727,"heast":7728,"Ġpoo":7729,"Ġmike":7730,"Ġcad":7731,"roof":7732,"Ġfine":7733,"Ġdid":7734,"Ġdarts":7735,"lable":7736,"atch":7737,"Ġmanic":7738,"Ġmanhole":7739,"une":7740,"Ġstood":7741,"Ġstitch":7742,"idas":7743,"ands":7744,"Ġdozens":7745,"oper":7746,"rad":7747,"Ġtwins":7748,"utheast":7749,"Ġrepla":7750,"Ġplayful":7751,"Ġthr":7752,"Ġrise":7753,"Ġnow":7754,"Ġnorm":7755,"Ġbaza":7756,"Ġloit":7757,"Ġloving":7758,"Ġhoses":7759,"Ġblackboard":7760,"ota":7761,"umble":7762,"ador":7763,"Ġwaling":7764,"Ġbeij":7765,"verty":7766,"Ġroast":7767,"Ġroute":7768,"Ġroasting":7769,"iments":7770,"Ġlaw":7771,"Ġheat":7772,"Ġhawk":7773,"Ġkarao":7774,"Ġwatery":7775,"Ġcarve":7776,"Ġpoverty":7777,"Ġfoil":7778,"Ġrunway":7779,"Ġneeds":7780,"Ġlei":7781,"Ġlets":7782,"Ġvig":7783,"Ġvivid":7784,"Ġbigger":7785,"Ġspa":7786,"Ġspikes":7787,"Ġspreading":7788,"Ġsnowing":7789,"Ġtrap":7790,"chested":7791,"airs":7792,"Ġjackhammer":7793,"Ġwavy":7794,"Ġsoutheast":7795,"shund":7796,"istry":7797,"Ġfaced":7798,"Ġmout":7799,"Ġunice":7800,"Ġparamed":7801,"Ġparlor":7802,"Ġlively":7803,"Ġadidas":7804,"Ġbicyclers":7805,"Ġprojects":7806,"Ġpromin":7807,"Ġproblem":7808,"Ġenfor":7809,"Ġcages":7810,"Ġwindy":7811,"Ġbands":7812,"Ġbandage":7813,"Ġstorefronts":7814,"Ġtreats":7815,"Ġbathed":7816,"Ġhighly":7817,"Ġdesola":7818,"Ġgran":7819,"Ġbackpackers":7820,"Ġcoral":7821,"coats":7822,"Ġdoorstep":7823,"Ġfamous":7824,"aneled":7825,"Ġfriendly":7826,"Ġwinner":7827,"Ġconverses":7828,"Ġchecker":7829,"Ġcupcake":7830,"Ġpicked":7831,"Ġpresumably":7832,"Ġpotent":7833,"Ġplatter":7834,"Ġpaintball":7835,"Ġpeddling":7836,"Ġindians":7837,"Ġcliffs":7838,"Ġflowering":7839,"Ġtrouble":7840,"Ġphotography":7841,"mbling":7842,"Ġsculptor":7843,"Ġadvertises":7844,"Ġclears":7845,"Ġexpanse":7846,"Ġringing":7847,"Ġchained":7848,"Ġcollect":7849,"Ġlabrad":7850,"Ġtuning":7851,"Ġwaterside":7852,"Ġeatery":7853,"Ġesp":7854,"Ġmustached":7855,"Ġcleaned":7856,"Ġhalfway":7857,"Ġsprinting":7858,"Ġpuddles":7859,"Ġtuss":7860,"Ġdefend":7861,"Ġprints":7862,"Ġdreads":7863,"Ġdumping":7864,"Ġplanks":7865,"Ġprize":7866,"Ġlonely":7867,"Ġlearn":7868,"Ġbreakdances":7869,"Ġblade":7870,"Ġgeomet":7871,"Ġcameramen":7872,"Ġhoping":7873,"Ġcalling":7874,"Ġdome":7875,"Ġlatino":7876,"Ġavai":7877,"Ġutens":7878,"Ġremove":7879,"Ġarranging":7880,"Ġheaddresses":7881,"Ġmuscle":7882,"Ġcharco":7883,"Ġcomfort":7884,"Ġscreams":7885,"Ġcooling":7886,"Ġtextile":7887,"Ġscientists":7888,"Ġvault":7889,"Ġinterviewing":7890,"Ġsearch":7891,"Ġassistance":7892,"Ġreturning":7893,"Ġmarshmallow":7894,"Ġforklift":7895,"Ġhorizontally":7896,"Ġmingling":7897,"Ġlunges":7898,"Ġcouches":7899,"Ġstrums":7900,"Ġscooping":7901,"Ġproviding":7902,"Ġweapons":7903,"themed":7904,"Ġcrocs":7905,"Ġchemistry":7906,"Ġskyscraper":7907,"Ġglances":7908,"Ġrushing":7909,"Ġtechnique":7910,"Ġspiral":7911,"Ġspecim":7912,"Ġvolunteers":7913,"Ġsituation":7914,"flip":7915,"Ġqueen":7916,"Ġcylinder":7917,"Ġtwenty":7918,"Ġmachete":7919,"Ġclerk":7920,"Ġravine":7921,"Ġvelvet":7922,"Ġtrotting":7923,"Ġromantic":7924,"Ġlocomotive":7925,"Ġ2008":7926,"Ġmetropolitan":7927,"Ġaggress":7928,"Ġshrine":7929,"Ġinternational":7930,"Ġsatchel":7931,"Ġhigher":7932,"Ġoutcropping":7933,"Ġsquirrel":7934,"Ġgambling":7935,"Ġsandwiches":7936,"Ġdiligently":7937,"Ġbazaar":7938,"Ġbeijing":7939,"Ġkaraoke":7940,"Ġunicef":7941,"Ġdesolate":7942,"Ġgeometric":7943,"ae":7944,"aws":7945,"gent":7946,"kers":7947,"ough":7948,"rise":7949,"sy":7950,"swing":7951,"uing":7952,"vo":7953,"yal":7954,"Ġet":7955,"Ġide":7956,"Ġign":7957,"Ġike":7958,"Ġauth":7959,"inte":7960,"Ġsession":7961,"Ġsib":7962,"Ġsizes":7963,"Ġwants":7964,"Ġoccas":7965,"ances":7966,"Ġbark":7967,"Ġink":7968,"Ġpers":7969,"Ġplywood":7970,"Ġmr":7971,"isc":7972,"arian":7973,"Ġonlooking":7974,"Ġding":7975,"Ġdach":7976,"Ġdummy":7977,"Ġsta":7978,"Ġshares":7979,"Ġtwel":7980,"Ġtwisting":7981,"Ġboa":7982,"Ġbol":7983,"Ġboom":7984,"Ġbodies":7985,"Ġyama":7986,"Ġpean":7987,"Ġpeeling":7988,"Ġrevol":7989,"Ġrelease":7990,"Ġthomas":7991,"Ġrv":7992,"Ġruff":7993,"stairs":7994,"Ġchart":7995,"Ġchunk":7996,"Ġjars":7997,"Ġbadge":7998,"Ġlob":7999,"Ġlos":8000,"Ġlowered":8001,"Ġhost":8002,"Ġhour":8003,"Ġbeater":8004,"ili":8005,"Ġromp":8006,"Ġroped":8007,"Ġmenus":8008,"riger":8009,"Ġsmir":8010,"Ġherding":8011,"Ġheated":8012,"ults":8013,"Ġcarves":8014,"Ġpala":8015,"Ġpoll":8016,"Ġcrop":8017,"Ġgreens":8018,"Ġgreenish":8019,"Ġskips":8020,"Ġotherwise":8021,"Ġsideline":8022,"Ġsidewalks":8023,"Ġsnowf":8024,"Ġtrade":8025,"Ġballgame":8026,"Ġteeter":8027,"Ġcampers":8028,"Ġthatched":8029,"Ġhairstyle":8030,"ski":8031,"Ġparag":8032,"Ġcolour":8033,"anted":8034,"Ġadding":8035,"Ġbicycler":8036,"Ġprevent":8037,"Ġcheered":8038,"arer":8039,"Ġtanks":8040,"Ġfootpr":8041,"Ġgrounds":8042,"Ġbarbie":8043,"Ġpatches":8044,"Ġfliers":8045,"Ġsau":8046,"Ġflashing":8047,"Ġslice":8048,"Ġbatons":8049,"Ġforearm":8050,"Ġsurrounds":8051,"Ġsleepy":8052,"Ġartif":8053,"Ġindig":8054,"Ġjoe":8055,"Ġcreature":8056,"Ġafrica":8057,"Ġbreaks":8058,"Ġshaft":8059,"Ġcrashes":8060,"Ġgently":8061,"Ġglobe":8062,"Ġalumin":8063,"Ġtakeout":8064,"Ġtattered":8065,"ould":8066,"Ġpitches":8067,"Ġconcerned":8068,"venue":8069,"Ġclaps":8070,"Ġpostal":8071,"Ġformed":8072,"Ġrefriger":8073,"Ġtrots":8074,"Ġtroupe":8075,"Ġshotgun":8076,"Ġlego":8077,"Ġobserved":8078,"ension":8079,"Ġcris":8080,"Ġmedal":8081,"Ġchristian":8082,"ibility":8083,"Ġpierced":8084,"Ġexpensive":8085,"Ġbathrobe":8086,"Ġpancakes":8087,"Ġ50":8088,"Ġstrides":8089,"Ġdonut":8090,"Ġgrooms":8091,"Ġsummit":8092,"Ġfigur":8093,"Ġkeyboards":8094,"Ġentertainer":8095,"Ġbmw":8096,"Ġnapk":8097,"Ġpitchers":8098,"Ġrollerskaters":8099,"Ġdustpan":8100,"Ġdesigner":8101,"Ġescalators":8102,"Ġpositions":8103,"Ġauto":8104,"Ġrecipe":8105,"Ġgrandpa":8106,"Ġletting":8107,"Ġweathered":8108,"stract":8109,"Ġpumps":8110,"books":8111,"Ġeverything":8112,"Ġdumps":8113,"Ġbundles":8114,"Ġprim":8115,"Ġfashionable":8116,"Ġangeles":8117,"Ġorganizing":8118,"Ġtexts":8119,"Ġstylish":8120,"Ġwhisper":8121,"Ġhunting":8122,"Ġmexico":8123,"Ġsparkly":8124,"Ġbritain":8125,"Ġaccents":8126,"Ġwander":8127,"Ġacrobatics":8128,"Ġharvest":8129,"ulele":8130,"Ġseniors":8131,"Ġinterviews":8132,"Ġscoops":8133,"Ġmaneuvers":8134,"Ġdolly":8135,"Ġofficials":8136,"Ġgoose":8137,"Ġcannot":8138,"Ġlockers":8139,"Ġarchitect":8140,"Ġfoundation":8141,"Ġamazing":8142,"Ġabstract":8143,"Ġberlin":8144,"Ġvideotaping":8145,"Ġornament":8146,"Ġreleasing":8147,"Ġfixture":8148,"Ġsketch":8149,"Ġattentive":8150,"Ġblossoms":8151,"Ġsnorkel":8152,"Ġampl":8153,"Ġclings":8154,"Ġclinging":8155,"Ġcommunicating":8156,"Ġanticipation":8157,"Ġukulele":8158,"Ġpiercings":8159,"Ġspiky":8160,"Ġwaffle":8161,"Ġcommuters":8162,"Ġgingerbread":8163,"Ġsoldering":8164,"Ġaccessories":8165,"Ġadventure":8166,"Ġwrong":8167,"Ġsledgehammer":8168,"Ġpenguin":8169,"Ġairline":8170,"Ġinsect":8171,"Ġswampy":8172,"Ġbrochure":8173,"Ġquartet":8174,"Ġfingernails":8175,"Ġpopulated":8176,"Ġtiara":8177,"Ġbaggage":8178,"Ġprojection":8179,"Ġaffection":8180,"Ġbreeze":8181,"Ġninja":8182,"Ġsomersault":8183,"Ġtechnology":8184,"Ġlingerie":8185,"Ġgovernment":8186,"Ġapplaud":8187,"Ġalbum":8188,"Ġtypewriter":8189,"Ġtissue":8190,"Ġenforcement":8191,"Ġavailable":8192,"Ġcharcoal":8193,"Ġikea":8194,"Ġauthor":8195,"Ġsibling":8196,"Ġoccasion":8197,"Ġdachshund":8198,"Ġtwelve":8199,"Ġyamaha":8200,"Ġaluminum":8201,"ailed":8202,"bar":8203,"col":8204,"flowing":8205,"jab":8206,"nes":8207,"nets":8208,"oy":8209,"ux":8210,"wled":8211,"wls":8212,"Ġ%":8213,"Ġq":8214,"Ġala":8215,"Ġast":8216,"Ġastro":8217,"Ġtren":8218,"Ġsow":8219,"Ġsif":8220,"Ġsuck":8221,"Ġsashes":8222,"Ġwant":8223,"Ġwipes":8224,"Ġwould":8225,"Ġoct":8226,"Ġpu":8227,"Ġpis":8228,"Ġpensive":8229,"Ġmard":8230,"Ġmind":8231,"Ġcue":8232,"Ġcors":8233,"Ġceram":8234,"lery":8235,"rough":8236,"Ġanx":8237,"Ġgird":8238,"Ġfal":8239,"Ġhide":8240,"Ġhound":8241,"lamic":8242,"enous":8243,"Ġislamic":8244,"Ġstem":8245,"ckled":8246,"Ġwhist":8247,"Ġtowing":8248,"iders":8249,"Ġshading":8250,"Ġareas":8251,"Ġpeppers":8252,"Ġreen":8253,"Ġreind":8254,"Ġrearing":8255,"ounts":8256,"sty":8257,"Ġchoo":8258,"Ġchalle":8259,"Ġchief":8260,"geous":8261,"Ġjim":8262,"Ġnes":8263,"Ġnyc":8264,"Ġyoungster":8265,"Ġholing":8266,"elly":8267,"Ġfrosting":8268,"Ġroyal":8269,"Ġstreaks":8270,"Ġstreetlight":8271,"Ġstreetlights":8272,"ntable":8273,"iming":8274,"Ġgrouped":8275,"Ġherbs":8276,"Ġhedge":8277,"Ġtaped":8278,"Ġtaught":8279,"bobs":8280,"Ġbackflip":8281,"Ġneg":8282,"Ġnecks":8283,"Ġlem":8284,"Ġcrouch":8285,"Ġswirl":8286,"Ġvent":8287,"Ġsemin":8288,"Ġsequin":8289,"indle":8290,"Ġspear":8291,"Ġspag":8292,"Ġtrailing":8293,"Ġbuilds":8294,"Ġsoaring":8295,"dyed":8296,"Ġcloser":8297,"Ġarches":8298,"rug":8299,"Ġcomic":8300,"Ġpara":8301,"Ġbrimmed":8302,"Ġadd":8303,"Ġdarkly":8304,"Ġprogra":8305,"Ġprops":8306,"Ġpromo":8307,"ript":8308,"Ġsuited":8309,"Ġcompact":8310,"aled":8311,"Ġcact":8312,"Ġcaged":8313,"Ġdevil":8314,"pec":8315,"Ġbarks":8316,"Ġexchan":8317,"Ġsauce":8318,"Ġmarks":8319,"Ġslanted":8320,"Ġsticker":8321,"Ġmarkers":8322,"orth":8323,"Ġcanes":8324,"Ġcanon":8325,"Ġpasta":8326,"Ġbasketballs":8327,"Ġcleats":8328,"Ġdrift":8329,"Ġvegas":8330,"Ġdesper":8331,"Ġleave":8332,"Ġgrilled":8333,"Ġboarder":8334,"Ġjoke":8335,"Ġcreme":8336,"Ġdrumming":8337,"Ġtoday":8338,"Ġturntable":8339,"Ġeyel":8340,"Ġhijab":8341,"Ġwheeling":8342,"Ġpointy":8343,"ankment":8344,"Ġrains":8345,"Ġrainstorm":8346,"Ġcracked":8347,"Ġwrang":8348,"Ġhoods":8349,"Ġsteers":8350,"Ġkissed":8351,"Ġstatute":8352,"Ġally":8353,"Ġalread":8354,"Ġpaddy":8355,"Ġpadding":8356,"Ġnetting":8357,"Ġintimate":8358,"Ġpreschool":8359,"Ġpotter":8360,"Ġ33":8361,"Ġlandmark":8362,"onders":8363,"Ġnecktie":8364,"Ġformations":8365,"Ġcountertop":8366,"Ġdecorate":8367,"Ġreport":8368,"Ġrepelling":8369,"Ġstarted":8370,"Ġobservers":8371,"Ġprice":8372,"Ġcandid":8373,"Ġburn":8374,"Ġwraps":8375,"Ġcases":8376,"Ġ15":8377,"Ġcollars":8378,"Ġreflected":8379,"Ġinclude":8380,"Ġpacking":8381,"Ġtongues":8382,"Ġembankment":8383,"comple":8384,"wheels":8385,"Ġsprint":8386,"Ġexciting":8387,"Ġknits":8388,"Ġwarmers":8389,"goers":8390,"Ġentertainers":8391,"view":8392,"Ġkept":8393,"Ġinternet":8394,"Ġgrinder":8395,"Ġcontrolled":8396,"Ġautogra":8397,"Ġapplied":8398,"maid":8399,"Ġjugs":8400,"Ġbassist":8401,"Ġbunk":8402,"Ġflyer":8403,"Ġnursing":8404,"Ġbillboards":8405,"Ġcompetitively":8406,"Ġcontestant":8407,"Ġsnowsho":8408,"Ġportraits":8409,"Ġtailg":8410,"Ġimpress":8411,"Ġbrowse":8412,"Ġsparkling":8413,"Ġsparkler":8414,"Ġrifles":8415,"Ġcongregation":8416,"Ġvictorian":8417,"Ġattendees":8418,"Ġcharging":8419,"Ġcomfortable":8420,"Ġwandering":8421,"Ġtwirls":8422,"Ġcanada":8423,"Ġsurprise":8424,"Ġfinds":8425,"Ġadobe":8426,"Ġbarricades":8427,"Ġpowered":8428,"Ġbridesmaid":8429,"Ġreturns":8430,"Ġnavigating":8431,"Ġcocktail":8432,"Ġascends":8433,"Ġoxen":8434,"Ġpuzzled":8435,"Ġamazement":8436,"Ġdolphins":8437,"Ġquestions":8438,"Ġdandelions":8439,"Ġcivilian":8440,"Ġcivilians":8441,"Ġmisty":8442,"Ġrefreshing":8443,"Ġjamming":8444,"Ġflexing":8445,"Ġrushes":8446,"Ġlesson":8447,"Ġsnorkeling":8448,"Ġveterans":8449,"Ġurin":8450,"apples":8451,"Ġsolider":8452,"Ġchoreogra":8453,"Ġcontinue":8454,"Ġarrangement":8455,"Ġbagel":8456,"Ġfrolics":8457,"Ġphysical":8458,"Ġpassionately":8459,"Ġplugging":8460,"Ġpamphlet":8461,"circle":8462,"Ġhollywood":8463,"Ġkabobs":8464,"Ġawkwardly":8465,"hetti":8466,"Ġoverhang":8467,"Ġturbans":8468,"Ġresponding":8469,"Ġrefreshments":8470,"Ġoccurring":8471,"Ġrectangular":8472,"Ġevergreen":8473,"Ġneatly":8474,"Ġnormal":8475,"Ġlobster":8476,"Ġcolourful":8477,"Ġfootprints":8478,"Ġindigenous":8479,"Ġamplifier":8480,"Ġreindeer":8481,"Ġchalleng":8482,"Ġspaghetti":8483,"Ġpromoting":8484,"Ġalready":8485,"11":8486,"ash":8487,"brown":8488,"dri":8489,"flight":8490,"horn":8491,"hadow":8492,"kart":8493,"ole":8494,"tra":8495,"tch":8496,"tying":8497,"vin":8498,"wag":8499,"Ġer":8500,"Ġig":8501,"Ġiv":8502,"Ġastride":8503,"Ġtors":8504,"Ġore":8505,"Ġoxy":8506,"Ġbir":8507,"Ġbru":8508,"rets":8509,"Ġpug":8510,"Ġpens":8511,"Ġplowing":8512,"Ġpanda":8513,"Ġmort":8514,"Ġcure":8515,"Ġgut":8516,"Ġfry":8517,"Ġfights":8518,"Ġfift":8519,"Ġfaded":8520,"Ġfright":8521,"Ġonion":8522,"Ġonions":8523,"alo":8524,"ensely":8525,"atively":8526,"Ġtopping":8527,"onist":8528,"opus":8529,"Ġboss":8530,"Ġpepper":8531,"Ġreun":8532,"Ġreeds":8533,"Ġreno":8534,"child":8535,"Ġrival":8536,"Ġchi":8537,"Ġchats":8538,"Ġchandel":8539,"urst":8540,"urney":8541,"Ġnorth":8542,"irly":8543,"Ġcoal":8544,"elled":8545,"uma":8546,"uments":8547,"Ġbeak":8548,"Ġouter":8549,"riff":8550,"Ġdownwards":8551,"Ġhen":8552,"Ġhedges":8553,"kswag":8554,"enta":8555,"Ġbacked":8556,"Ġbackside":8557,"Ġram":8558,"Ġracks":8559,"Ġbucks":8560,"Ġbuzz":8561,"Ġswad":8562,"Ġvista":8563,"Ġskilled":8564,"fort":8565,"Ġseren":8566,"inders":8567,"Ġsnugg":8568,"Ġyells":8569,"Ġspool":8570,"Ġtrape":8571,"Ġballroom":8572,"urely":8573,"Ġwaking":8574,"wded":8575,"wdri":8576,"Ġsou":8577,"Ġsock":8578,"Ġarid":8579,"Ġscored":8580,"Ġcame":8581,"Ġfairly":8582,"Ġunt":8583,"Ġuncut":8584,"Ġshocked":8585,"Ġguest":8586,"Ġcomb":8587,"dog":8588,"Ġjewe":8589,"Ġwalkie":8590,"ggan":8591,"ription":8592,"Ġflorid":8593,"Ġsignals":8594,"Ġsweatsuit":8595,"Ġbarred":8596,"Ġbarbed":8597,"Ġdays":8598,"Ġcapes":8599,"Ġconstructions":8600,"Ġslump":8601,"Ġtreks":8602,"Ġcancer":8603,"Ġribs":8604,"Ġlighter":8605,"Ġmatador":8606,"Ġgrate":8607,"Ġarticle":8608,"Ġmean":8609,"Ġmeals":8610,"Ġtrink":8611,"Ġcreation":8612,"Ġcreated":8613,"Ġdrummers":8614,"izer":8615,"Ġturf":8616,"Ġbreed":8617,"Ġpullo":8618,"Ġlottery":8619,"Ġbeds":8620,"Ġhoodies":8621,"Ġsteaks":8622,"Ġbeautifully":8623,"Ġedges":8624,"Ġstroke":8625,"Ġallow":8626,"Ġalter":8627,"Ġseriously":8628,"headed":8629,"Ġintensely":8630,"Ġanimated":8631,"Ġtrails":8632,"Ġnotice":8633,"Ġknight":8634,"Ġspectac":8635,"Ġpainters":8636,"Ġpedest":8637,"Ġfixed":8638,"Ġtye":8639,"Ġbraces":8640,"Ġdesktop":8641,"Ġviolinists":8642,"Ġexamined":8643,"Ġsmokey":8644,"Ġgolfing":8645,"Ġburger":8646,"hold":8647,"hose":8648,"hoops":8649,"Ġfathers":8650,"Ġseaside":8651,"Ġ14":8652,"Ġ16":8653,"Ġ18":8654,"Ġassign":8655,"Ġassists":8656,"Ġoperated":8657,"Ġmagenta":8658,"Ġorigin":8659,"Ġguarded":8660,"Ġpanels":8661,"Ġsuspension":8662,"comes":8663,"Ġapproxim":8664,"Ġrobed":8665,"Ġentertained":8666,"Ġshoeless":8667,"Ġfabrics":8668,"Ġchopped":8669,"Ġtrumpets":8670,"Ġpinstriped":8671,"Ġdefends":8672,"Ġcontroller":8673,"Ġgrandson":8674,"Ġglit":8675,"Ġlayup":8676,"Ġheadbands":8677,"Ġarchae":8678,"Ġleafs":8679,"Ġwildflowers":8680,"Ġkeeper":8681,"Ġstrangely":8682,"Ġplanter":8683,"daughter":8684,"Ġsocialize":8685,"Ġslal":8686,"Ġslabs":8687,"Ġregal":8688,"Ġinterest":8689,"Ġceltic":8690,"Ġhuddles":8691,"Ġpressing":8692,"Ġflatbed":8693,"Ġvacuums":8694,"Ġjoyfully":8695,"Ġpineapples":8696,"Ġdecals":8697,"Ġdecides":8698,"Ġdropped":8699,"Ġgraduate":8700,"Ġbadges":8701,"Ġpoorly":8702,"Ġexplores":8703,"Ġfitting":8704,"Ġfitness":8705,"Ġutil":8706,"Ġremoves":8707,"Ġremoved":8708,"Ġsoapy":8709,"Ġcomforting":8710,"Ġcoolers":8711,"Ġvolcan":8712,"Ġvolkswag":8713,"Ġbounding":8714,"Ġinterview":8715,"Ġsearches":8716,"Ġassistant":8717,"Ġrecorder":8718,"Ġgrim":8719,"Ġsteaming":8720,"Ġtoilets":8721,"Ġjagged":8722,"Ġexplains":8723,"Ġnavigate":8724,"Ġdete":8725,"Ġlocker":8726,"Ġgrasps":8727,"Ġdrawer":8728,"Ġyawns":8729,"Ġoxford":8730,"Ġbumpy":8731,"Ġbroadly":8732,"Ġslingshot":8733,"Ġstrawberries":8734,"Ġsanitation":8735,"Ġitaly":8736,"Ġornamental":8737,"Ġlaunching":8738,"Ġlaunches":8739,"dotted":8740,"Ġsurveys":8741,"Ġveteran":8742,"Ġseparated":8743,"Ġshells":8744,"Ġpearl":8745,"Ġgrimaces":8746,"Ġponcho":8747,"Ġstraddling":8748,"Ġisraeli":8749,"Ġdalmat":8750,"Ġbasin":8751,"Ġcluster":8752,"climbing":8753,"Ġtinker":8754,"Ġpeacock":8755,"Ġlifeguard":8756,"Ġllama":8757,"Ġcolonial":8758,"Ġscrewdri":8759,"Ġgranite":8760,"Ġpotential":8761,"Ġlabrador":8762,"Ġtussle":8763,"Ġspecimen":8764,"Ġrevolution":8765,"Ġpalace":8766,"Ġnapkin":8767,"Ġtrendy":8768,"Ġoctopus":8769,"Ġmardi":8770,"Ġceramic":8771,"Ġlemons":8772,"Ġseminar":8773,"Ġtorso":8774,"Ġoxygen":8775,"Ġtrapeze":8776,"Ġflorida":8777,"Ġapproximately":8778,"Ġarchaeolog":8779,"aic":8780,"away":8781,"aves":8782,"bit":8783,"bird":8784,"bac":8785,"cards":8786,"dging":8787,"ead":8788,"even":8789,"eared":8790,"fighting":8791,"fives":8792,"gi":8793,"grown":8794,"iator":8795,"lican":8796,"person":8797,"phed":8798,"tar":8799,"try":8800,"tuce":8801,"ua":8802,"va":8803,"vic":8804,"vag":8805,"won":8806,"Ġx":8807,"Ġaff":8808,"Ġaids":8809,"inated":8810,"inted":8811,"Ġtumbling":8812,"Ġwent":8813,"Ġwars":8814,"ancis":8815,"rescent":8816,"Ġinv":8817,"Ġpred":8818,"Ġpuma":8819,"Ġcert":8820,"Ġcuddle":8821,"Ġcuddling":8822,"roud":8823,"aran":8824,"Ġgone":8825,"Ġglad":8826,"Ġfru":8827,"Ġds":8828,"Ġdips":8829,"lation":8830,"aly":8831,"ira":8832,"Ġstony":8833,"cker":8834,"orse":8835,"Ġwhy":8836,"Ġton":8837,"Ġtobo":8838,"Ġshark":8839,"Ġshine":8840,"Ġshipping":8841,"Ġyong":8842,"utist":8843,"Ġpep":8844,"Ġpelican":8845,"Ġrebound":8846,"Ġthink":8847,"Ġrat":8848,"ste":8849,"stin":8850,"Ġchor":8851,"Ġchim":8852,"ury":8853,"urance":8854,"Ġnation":8855,"Ġbake":8856,"Ġloves":8857,"Ġlosing":8858,"Ġhoe":8859,"Ġhours":8860,"Ġhoisted":8861,"Ġblacktop":8862,"Ġcoaches":8863,"Ġbluish":8864,"umbles":8865,"Ġbeet":8866,"Ġbearer":8867,"Ġeiff":8868,"verted":8869,"Ġgrouch":8870,"Ġroam":8871,"Ġholder":8872,"Ġlace":8873,"Ġlabo":8874,"Ġheeled":8875,"Ġhazard":8876,"Ġtasting":8877,"Ġgrains":8878,"Ġkil":8879,"resso":8880,"Ġpaving":8881,"Ġpages":8882,"Ġpaisle":8883,"Ġupcoming":8884,"Ġupturned":8885,"Ġupstairs":8886,"Ġfolders":8887,"Ġrays":8888,"Ġcrotch":8889,"Ġswo":8890,"Ġswans":8891,"Ġswallow":8892,"Ġswung":8893,"Ġbrows":8894,"Ġsnoo":8895,"Ġoverflowing":8896,"Ġovergrown":8897,"Ġconical":8898,"Ġspong":8899,"Ġhandc":8900,"iance":8901,"inky":8902,"Ġgrasses":8903,"Ġarrows":8904,"Ġcamcor":8905,"phony":8906,"istic":8907,"Ġtablet":8908,"Ġfacade":8909,"Ġbeachfront":8910,"Ġgod":8911,"Ġmock":8912,"Ġairways":8913,"Ġsunb":8914,"Ġsunrise":8915,"Ġuneven":8916,"Ġshorter":8917,"Ġtopic":8918,"ires":8919,"Ġcomed":8920,"Ġgrayish":8921,"Ġmidriff":8922,"Ġhell":8923,"Ġparading":8924,"quets":8925,"shirted":8926,"Ġsands":8927,"Ġpursuit":8928,"Ġflorescent":8929,"Ġcompr":8930,"Ġmotions":8931,"Ġhandsome":8932,"Ġattach":8933,"Ġattends":8934,"Ġenco":8935,"Ġenough":8936,"Ġcaro":8937,"Ġhorned":8938,"Ġdefla":8939,"Ġmotorboat":8940,"Ġflutes":8941,"Ġexting":8942,"Ġtoyota":8943,"Ġmarine":8944,"Ġrestroom":8945,"Ġappre":8946,"Ġflaps":8947,"Ġdispen":8948,"Ġdisinte":8949,"Ġobese":8950,"Ġtreads":8951,"Ġpasture":8952,"Ġfrancis":8953,"Ġclen":8954,"Ġdries":8955,"Ġdrifting":8956,"Ġpolishing":8957,"Ġcellist":8958,"Ġgrid":8959,"scale":8960,"Ġbowed":8961,"Ġbespect":8962,"Ġdipping":8963,"Ġmelons":8964,"Ġbeards":8965,"Ġsubject":8966,"dlers":8967,"weiler":8968,"Ġplum":8969,"acled":8970,"Ġprays":8971,"Ġnoise":8972,"Ġcounty":8973,"Ġcurls":8974,"Ġ23":8975,"Ġ24":8976,"Ġ28":8977,"Ġstudded":8978,"Ġraincoats":8979,"Ġweed":8980,"Ġwintry":8981,"Ġequipped":8982,"rical":8983,"Ġenters":8984,"psy":8985,"Ġservices":8986,"Ġemptying":8987,"Ġnotep":8988,"Ġresid":8989,"Ġsafely":8990,"osable":8991,"Ġhappiness":8992,"venir":8993,"Ġmartini":8994,"Ġbullhorn":8995,"Ġclaw":8996,"Ġclams":8997,"Ġrelated":8998,"ugged":8999,"Ġimm":9000,"Ġbraid":9001,"Ġbrave":9002,"Ġtroop":9003,"cedes":9004,"Ġconversations":9005,"Ġprun":9006,"Ġlocals":9007,"Ġsprawled":9008,"Ġfurther":9009,"Ġmedia":9010,"Ġburying":9011,"Ġgymnasts":9012,"Ġstoops":9013,"Ġexposed":9014,"Ġdaught":9015,"Ġlogos":9016,"Ġcollected":9017,"Ġoperator":9018,"Ġtunes":9019,"Ġsquarepants":9020,"Ġhurt":9021,"Ġhurry":9022,"Ġfairground":9023,"Ġtransform":9024,"Ġcookout":9025,"Ġwaterfalls":9026,"Ġinfants":9027,"Ġstride":9028,"Ġdonning":9029,"Ġcrime":9030,"Ġshadowy":9031,"Ġshadowed":9032,"Ġmovement":9033,"Ġsimple":9034,"Ġmermaid":9035,"Ġmodels":9036,"Ġcampground":9037,"Ġcompleted":9038,"Ġrecent":9039,"Ġgranddaughter":9040,"Ġlettuce":9041,"Ġsheepdog":9042,"Ġlayers":9043,"Ġfiretrucks":9044,"Ġloads":9045,"Ġmissed":9046,"Ġvacant":9047,"Ġsuc":9048,"Ġsucks":9049,"Ġpumping":9050,"Ġfreeway":9051,"Ġsyring":9052,"Ġbullet":9053,"Ġspreads":9054,"Ġscrubbing":9055,"Ġhumorous":9056,"Ġnotebooks":9057,"Ġprizes":9058,"Ġjetty":9059,"Ġlearns":9060,"Ġlanyard":9061,"Ġlooms":9062,"Ġpressed":9063,"Ġparasail":9064,"Ġsalvation":9065,"Ġpeek":9066,"Ġrapid":9067,"Ġdeciding":9068,"Ġscores":9069,"Ġbulldog":9070,"Ġstyl":9071,"Ġcopper":9072,"Ġbushy":9073,"Ġmuscles":9074,"Ġcharity":9075,"Ġcomforter":9076,"Ġscientific":9077,"Ġsquirts":9078,"Ġcube":9079,"Ġknocked":9080,"Ġsymphony":9081,"Ġassisted":9082,"Ġinstead":9083,"Ġcoastline":9084,"Ġattacking":9085,"Ġunload":9086,"Ġmixture":9087,"Ġmeasure":9088,"Ġneedle":9089,"Ġneeded":9090,"Ġsilhouettes":9091,"Ġcontemplates":9092,"Ġbonnet":9093,"Ġbumper":9094,"Ġtraveler":9095,"Ġpossessions":9096,"Ġadolescents":9097,"Ġwields":9098,"Ġsplitting":9099,"Ġincense":9100,"Ġcycles":9101,"Ġpatrolling":9102,"Ġwonderful":9103,"Ġvideotapes":9104,"Ġhealthcare":9105,"crowded":9106,"Ġreleased":9107,"Ġrott":9108,"Ġsketching":9109,"Ġsurveying":9110,"Ġcarpentry":9111,"Ġwrecked":9112,"lence":9113,"Ġtotter":9114,"Ġsituated":9115,"Ġwristbands":9116,"Ġchores":9117,"Ġrecreational":9118,"Ġsombreros":9119,"Ġmelting":9120,"Ġanswer":9121,"Ġdocuments":9122,"Ġlemonade":9123,"Ġgrimacing":9124,"Ġponchos":9125,"lanter":9126,"Ġpursued":9127,"Ġextravag":9128,"Ġdramatic":9129,"Ġzooms":9130,"block":9131,"Ġtether":9132,"Ġsedan":9133,"Ġpleasant":9134,"Ġtrekking":9135,"Ġexcavator":9136,"Ġresearch":9137,"Ġexhausted":9138,"Ġmanipulating":9139,"Ġsource":9140,"Ġpharmacy":9141,"Ġdistracted":9142,"Ġlandscaping":9143,"Ġbookshelf":9144,"Ġeyebrows":9145,"Ġcapturing":9146,"Ġdisposable":9147,"Ġvietnamese":9148,"Ġaustral":9149,"Ġespresso":9150,"Ġutensils":9151,"Ġpeanut":9152,"Ġartifacts":9153,"Ġarchitectural":9154,"Ġastron":9155,"Ġreenact":9156,"Ġdesperately":9157,"Ġautograph":9158,"Ġtoppings":9159,"Ġreunion":9160,"Ġrenov":9161,"Ġsouvenir":9162,"Ġjewelery":9163,"Ġslumped":9164,"Ġtrinkets":9165,"Ġpullover":9166,"Ġpedestal":9167,"Ġslalom":9168,"Ġvolkswagen":9169,"Ġfrustr":9170,"Ġtoboggan":9171,"Ġeiffel":9172,"Ġpaisley":9173,"Ġbrowses":9174,"Ġsponges":9175,"Ġcamcorder":9176,"Ġencoura":9177,"Ġfrancisco":9178,"Ġbespectacled":9179,"Ġdaughters":9180,"aign":9181,"beat":9182,"bones":9183,"dom":9184,"gle":9185,"gal":9186,"horse":9187,"ked":9188,"mel":9189,"our":9190,"ose":9191,"pat":9192,"proof":9193,"run":9194,"sball":9195,"sest":9196,"tan":9197,"ulo":9198,"uge":9199,"vous":9200,"wers":9201,"Ġ0":9202,"Ġlack":9203,"Ġaa":9204,"Ġable":9205,"Ġaler":9206,"Ġawards":9207,"Ġavi":9208,"Ġavenue":9209,"Ġtests":9210,"Ġsipp":9211,"Ġwest":9212,"Ġowl":9213,"ani":9214,"Ġinn":9215,"Ġinverted":9216,"Ġpc":9217,"Ġpies":9218,"iti":9219,"itled":9220,"itude":9221,"Ġmine":9222,"Ġmuff":9223,"Ġmma":9224,"ern":9225,"erts":9226,"arily":9227,"Ġgn":9228,"Ġglee":9229,"Ġgang":9230,"Ġfling":9231,"Ġonward":9232,"Ġdaring":9233,"Ġdav":9234,"lamp":9235,"Ġmanner":9236,"unity":9237,"loo":9238,"esome":9239,"Ġwhit":9240,"Ġtoen":9241,"Ġshin":9242,"Ġshred":9243,"Ġshamp":9244,"Ġshaping":9245,"anding":9246,"Ġdodge":9247,"Ġdozes":9248,"raised":9249,"Ġtwil":9250,"Ġtwig":9251,"sses":9252,"icated":9253,"Ġpews":9254,"Ġrent":9255,"Ġreas":9256,"Ġreco":9257,"Ġlic":9258,"Ġthai":9259,"Ġrumm":9260,"stage":9261,"Ġchap":9262,"Ġjoking":9263,"Ġjelly":9264,"Ġnam":9265,"Ġbased":9266,"Ġlouis":9267,"Ġcoin":9268,"Ġcoals":9269,"Ġblues":9270,"Ġfrol":9271,"ader":9272,"aders":9273,"Ġbead":9274,"Ġbeats":9275,"Ġbecomes":9276,"Ġec":9277,"Ġere":9278,"Ġecc":9279,"Ġlakes":9280,"Ġtass":9281,"ionship":9282,"Ġgrapp":9283,"entric":9284,"ulting":9285,"ctic":9286,"Ġcarrot":9287,"Ġpacks":9288,"Ġupscale":9289,"Ġupraised":9290,"Ġrags":9291,"Ġswift":9292,"Ġbrought":9293,"Ġseam":9294,"Ġsewer":9295,"Ġmaple":9296,"Ġmason":9297,"Ġsno":9298,"Ġsnar":9299,"tock":9300,"Ġconce":9301,"Ġspain":9302,"Ġspare":9303,"xtures":9304,"Ġwag":9305,"Ġclosest":9306,"Ġscan":9307,"Ġscro":9308,"Ġfauc":9309,"Ġperf":9310,"Ġsunlit":9311,"Ġunpack":9312,"Ġunpaved":9313,"Ġguided":9314,"iped":9315,"Ġcombing":9316,"Ġbusily":9317,"ases":9318,"Ġparis":9319,"Ġlif":9320,"antage":9321,"Ġbene":9322,"Ġacts":9323,"ested":9324,"Ġchev":9325,"Ġbrisk":9326,"ores":9327,"Ġsanding":9328,"Ġsandal":9329,"Ġcompartment":9330,"Ġcomposed":9331,"Ġmountaineer":9332,"Ġsignage":9333,"Ġwindmill":9334,"Ġdevelo":9335,"Ġsweats":9336,"mpt":9337,"Ġcathol":9338,"ager":9339,"Ġtried":9340,"Ġtriath":9341,"Ġtriangle":9342,"Ġflank":9343,"Ġflung":9344,"Ġflippers":9345,"Ġsaving":9346,"mingham":9347,"Ġflam":9348,"Ġflapping":9349,"Ġslim":9350,"ived":9351,"ortunity":9352,"bee":9353,"Ġlightly":9354,"Ġhilltop":9355,"Ġdesp":9356,"Ġfeels":9357,"Ġfeeling":9358,"Ġskiiers":9359,"Ġpolar":9360,"Ġmates":9361,"Ġgrating":9362,"Ġarticles":9363,"Ġdior":9364,"Ġdiet":9365,"Ġhugged":9366,"Ġjoining":9367,"Ġcreative":9368,"Ġsubur":9369,"Ġbloom":9370,"color":9371,"abled":9372,"aced":9373,"acting":9374,"Ġcountries":9375,"Ġcurvy":9376,"athers":9377,"Ġskynyrd":9378,"Ġwelders":9379,"Ġclassmates":9380,"Ġcramp":9381,"Ġcracks":9382,"Ġcradles":9383,"Ġdistorted":9384,"Ġopportunity":9385,"Ġwrists":9386,"Ġgraffited":9387,"Ġfrisbees":9388,"Ġcigars":9389,"Ġstrokes":9390,"Ġstraining":9391,"berry":9392,"Ġalways":9393,"ugar":9394,"Ġnetted":9395,"Ġmulch":9396,"uffed":9397,"Ġfishnet":9398,"Ġpitched":9399,"Ġpresence":9400,"Ġfunky":9401,"Ġbanging":9402,"Ġspectator":9403,"Ġposted":9404,"Ġpostcards":9405,"Ġdirector":9406,"Ġquilted":9407,"Ġviolet":9408,"Ġviolence":9409,"Ġbraiding":9410,"Ġtrough":9411,"Ġsurfboarder":9412,"Ġsweets":9413,"Ġtubs":9414,"Ġprison":9415,"Ġsolders":9416,"thy":9417,"Ġairplan":9418,"Ġcran":9419,"Ġmedian":9420,"Ġgolfers":9421,"toned":9422,"Ġbrunet":9423,"Ġburrit":9424,"Ġprotected":9425,"Ġprotectors":9426,"Ġwrapper":9427,"Ġrowers":9428,"Ġstreams":9429,"Ġstreaming":9430,"Ġclearly":9431,"Ġpresented":9432,"Ġexposing":9433,"Ġreflector":9434,"Ġstretcher":9435,"Ġlabel":9436,"Ġtune":9437,"Ġwaterskis":9438,"Ġhurrying":9439,"Ġfences":9440,"Ġdecked":9441,"Ġtransaction":9442,"Ġ40":9443,"zzy":9444,"Ġterrace":9445,"Ġdeeply":9446,"Ġactively":9447,"Ġspeedboat":9448,"Ġsaxaphone":9449,"Ġrackets":9450,"Ġcamouflaged":9451,"Ġfanny":9452,"Ġinsp":9453,"Ġmopeds":9454,"Ġmovements":9455,"Ġchests":9456,"Ġkeyboardist":9457,"going":9458,"Ġsupports":9459,"Ġpeacefully":9460,"Ġrollerskate":9461,"Ġdemonstrate":9462,"Ġfarming":9463,"Ġrafters":9464,"abil":9465,"Ġdelight":9466,"Ġdelivers":9467,"Ġcampaign":9468,"Ġgrandchild":9469,"Ġfloatation":9470,"Ġroutines":9471,"Ġmisses":9472,"Ġornately":9473,"Ġcreepy":9474,"flop":9475,"Ġblen":9476,"Ġinteracts":9477,"Ġplanes":9478,"Ġconsum":9479,"Ġconsists":9480,"Ġhumans":9481,"Ġbeanbag":9482,"Ġprimit":9483,"Ġcalmly":9484,"Ġparasails":9485,"Ġadjustments":9486,"Ġfetches":9487,"Ġgela":9488,"lider":9489,"Ġchessboard":9490,"Ġreflections":9491,"Ġassembles":9492,"Ġvictim":9493,"Ġexperien":9494,"Ġdomino":9495,"Ġexplore":9496,"Ġinformal":9497,"Ġfitted":9498,"Ġillust":9499,"Ġcongregated":9500,"Ġsharpening":9501,"Ġ70":9502,"Ġnuns":9503,"Ġunusually":9504,"Ġconcentration":9505,"Ġboundary":9506,"Ġchampionship":9507,"Ġsundown":9508,"Ġskydivers":9509,"Ġgripping":9510,"Ġattacked":9511,"Ġferris":9512,"Ġsailors":9513,"Ġdetails":9514,"Ġfoamy":9515,"Ġsolar":9516,"Ġsolution":9517,"Ġbordered":9518,"Ġarrival":9519,"Ġhungry":9520,"Ġamazed":9521,"Ġincred":9522,"Ġbustling":9523,"Ġtasty":9524,"Ġtinted":9525,"Ġdesserts":9526,"Ġhealthy":9527,"Ġgorgeous":9528,"Ġrecliner":9529,"Ġfixtures":9530,"Ġnoodle":9531,"Ġfluid":9532,"Ġblossoming":9533,"Ġlimous":9534,"Ġexcavation":9535,"Ġvolunteer":9536,"Ġdrainage":9537,"Ġseasoning":9538,"Ġmugs":9539,"Ġanswers":9540,"Ġdocument":9541,"Ġmacbook":9542,"Ġunwraps":9543,"Ġclasped":9544,"hooping":9545,"Ġdelicious":9546,"Ġfuture":9547,"Ġlivestock":9548,"Ġimprovis":9549,"Ġgrips":9550,"Ġduty":9551,"Ġscrimm":9552,"Ġenergy":9553,"Ġdramatically":9554,"Ġsightseeing":9555,"Ġgypsy":9556,"Ġrappelling":9557,"Ġfoosball":9558,"Ġcosplay":9559,"Ġroots":9560,"Ġlynyrd":9561,"Ġcoworker":9562,"Ġcorpor":9563,"Ġbillowing":9564,"Ġreplacing":9565,"Ġthrill":9566,"Ġcheckerboard":9567,"Ġdingy":9568,"Ġwhispering":9569,"Ġapplauding":9570,"Ġsowing":9571,"Ġpisto":9572,"Ġgirder":9573,"Ġsequined":9574,"Ġexchanging":9575,"Ġeyeliner":9576,"Ġwrangling":9577,"Ġchoreographed":9578,"Ġchallenging":9579,"Ġigloo":9580,"Ġbirmingham":9581,"Ġmortar":9582,"Ġfifth":9583,"Ġhenna":9584,"Ġswaddled":9585,"Ġassignment":9586,"Ġglittery":9587,"Ġregalia":9588,"Ġvolcano":9589,"Ġdetector":9590,"Ġscrewdriver":9591,"Ġcertific":9592,"Ġgladiator":9593,"Ġchimney":9594,"Ġbeetle":9595,"Ġsunbathers":9596,"Ġdisinterested":9597,"Ġsuccess":9598,"Ġastronaut":9599,"Ġsippy":9600,"Ġshampoo":9601,"Ġtwilight":9602,"Ġeccentric":9603,"Ġswiftly":9604,"Ġfaucet":9605,"Ġcatholic":9606,"Ġairplanes":9607,"Ġprimitive":9608,"Ġscrimmage":9609,"bc":9610,"bes":9611,"bear":9612,"bot":9613,"bike":9614,"brimmed":9615,"cans":9616,"das":9617,"ee":9618,"fc":9619,"fish":9620,"golf":9621,"how":9622,"iate":9623,"iques":9624,"lar":9625,"nas":9626,"over":9627,"pri":9628,"plane":9629,"phere":9630,"paneled":9631,"spe":9632,"sia":9633,"truck":9634,"ttered":9635,"uv":9636,"wall":9637,"wesome":9638,"yhose":9639,"zas":9640,"Ġawn":9641,"Ġaver":9642,"Ġari":9643,"Ġawesome":9644,"Ġtand":9645,"Ġtru":9646,"Ġtimb":9647,"Ġtearing":9648,"Ġsi":9649,"Ġsop":9650,"Ġsugar":9651,"Ġwile":9652,"Ġwore":9653,"Ġwound":9654,"Ġbing":9655,"Ġbom":9656,"Ġbones":9657,"Ġbisc":9658,"heater":9659,"rex":9660,"Ġinsc":9661,"Ġmam":9662,"Ġmong":9663,"Ġcops":9664,"lein":9665,"leap":9666,"Ġther":9667,"Ġtheat":9668,"ision":9669,"rots":9670,"ropped":9671,"Ġanaly":9672,"Ġgey":9673,"Ġgna":9674,"Ġfuch":9675,"Ġfries":9676,"Ġhops":9677,"Ġdw":9678,"Ġdre":9679,"Ġdumb":9680,"Ġdial":9681,"Ġdeath":9682,"Ġdream":9683,"Ġdude":9684,"ald":9685,"encil":9686,"Ġstal":9687,"Ġstap":9688,"Ġstencil":9689,"Ġtoned":9690,"Ġtoasting":9691,"Ġshri":9692,"Ġshuff":9693,"Ġshift":9694,"andal":9695,"Ġdove":9696,"iced":9697,"Ġpeas":9698,"Ġpeps":9699,"Ġthous":9700,"Ġcha":9701,"Ġchilly":9702,"Ġjay":9703,"Ġnan":9704,"idered":9705,"Ġloop":9706,"Ġlouds":9707,"Ġwhitewater":9708,"Ġhooking":9709,"Ġhovers":9710,"Ġhooks":9711,"Ġhousing":9712,"Ġfrowns":9713,"Ġwalgreen":9714,"Ġboyfriend":9715,"Ġoutward":9716,"Ġegy":9717,"Ġrods":9718,"rif":9719,"Ġstreaked":9720,"Ġlas":9721,"Ġladle":9722,"Ġsmas":9723,"owa":9724,"ows":9725,"veled":9726,"Ġheine":9727,"Ġhearing":9728,"Ġhaiti":9729,"Ġtaping":9730,"Ġgrapes":9731,"Ġkart":9732,"Ġklein":9733,"ressing":9734,"Ġcarca":9735,"Ġcarrots":9736,"Ġpaul":9737,"Ġbackup":9738,"Ġbackhand":9739,"Ġworried":9740,"Ġforces":9741,"Ġlen":9742,"Ġbuoy":9743,"Ġcrook":9744,"Ġcropped":9745,"redevil":9746,"Ġvw":9747,"Ġvans":9748,"Ġvines":9749,"Ġliter":9750,"Ġmaps":9751,"Ġhatch":9752,"Ġoverall":9753,"long":9754,"Ġconco":9755,"Ġspend":9756,"Ġspell":9757,"ained":9758,"Ġhandler":9759,"Ġhandgun":9760,"chet":9761,"Ġwax":9762,"igra":9763,"igration":9764,"apple":9765,"Ġsox":9766,"Ġsodas":9767,"Ġnears":9768,"dye":9769,"Ġcloak":9770,"ppled":9771,"Ġcamo":9772,"phies":9773,"icks":9774,"Ġperches":9775,"Ġbackgrounds":9776,"Ġmov":9777,"dless":9778,"Ġsunflowers":9779,"Ġsunhats":9780,"Ġdrills":9781,"Ġheadlamp":9782,"Ġshouts":9783,"tering":9784,"terned":9785,"Ġhairdo":9786,"skating":9787,"Ġreadying":9788,"asm":9789,"Ġparap":9790,"Ġparrot":9791,"Ġadorn":9792,"estyle":9793,"Ġprey":9794,"Ġpreteen":9795,"Ġproce":9796,"Ġbrings":9797,"Ġbrindle":9798,"wardess":9799,"hael":9800,"Ġenvelo":9801,"Ġfootbal":9802,"Ġcausing":9803,"Ġmichael":9804,"Ġamph":9805,"peaker":9806,"pless":9807,"plets":9808,"Ġbarbell":9809,"Ġdaycare":9810,"eye":9811,"Ġtrims":9812,"Ġcapris":9813,"Ġsac":9814,"Ġsaid":9815,"Ġcrossbones":9816,"Ġdisabled":9817,"Ġobl":9818,"nished":9819,"Ġslush":9820,"Ġshowering":9821,"Ġfring":9822,"Ġfrilly":9823,"cessing":9824,"Ġpasser":9825,"oli":9826,"Ġbowties":9827,"Ġevil":9828,"Ġmeets":9829,"Ġcorre":9830,"Ġcorral":9831,"Ġcrevice":9832,"ization":9833,"Ġsubm":9834,"Ġbloody":9835,"Ġhitch":9836,"Ġhousehold":9837,"anky":9838,"Ġwinnie":9839,"Ġcrabs":9840,"Ġcracking":9841,"Ġcrashed":9842,"Ġdistri":9843,"Ġwrink":9844,"Ġpolicewoman":9845,"Ġsteak":9846,"Ġstewardess":9847,"decker":9848,"Ġscarfs":9849,"Ġvaried":9850,"Ġpicturesque":9851,"Ġgarter":9852,"Ġeyeshadow":9853,"Ġpresident":9854,"Ġrespect":9855,"osphere":9856,"Ġmiller":9857,"allets":9858,"Ġspectate":9859,"Ġearpiece":9860,"Ġlinks":9861,"Ġdirected":9862,"chers":9863,"Ġqual":9864,"Ġquaint":9865,"Ġwrestles":9866,"ify":9867,"Ġdecorates":9868,"Ġtypical":9869,"Ġtrophies":9870,"Ġsweating":9871,"Ġreplic":9872,"Ġproduction":9873,"Ġtubing":9874,"Ġtalkie":9875,"Ġcalvin":9876,"Ġways":9877,"Ġengland":9878,"Ġprotects":9879,"Ġfestiv":9880,"Ġdash":9881,"Ġdaredevil":9882,"Ġiowa":9883,"Ġsloping":9884,"Ġorient":9885,"Ġlowering":9886,"Ġgiants":9887,"Ġ53":9888,"Ġfeature":9889,"Ġfeatured":9890,"Ġstrand":9891,"Ġapproached":9892,"Ġappropri":9893,"Ġbuttoned":9894,"Ġbandannas":9895,"Ġrollerskater":9896,"Ġbouquets":9897,"Ġmercedes":9898,"Ġposting":9899,"Ġmodeling":9900,"Ġthorough":9901,"Ġopposition":9902,"Ġcobblest":9903,"Ġpopular":9904,"Ġreceived":9905,"Ġtugs":9906,"Ġteachers":9907,"Ġrecital":9908,"Ġgrandma":9909,"Ġlayered":9910,"Ġcommon":9911,"Ġponytails":9912,"Ġstories":9913,"Ġpizzer":9914,"Ġpizzas":9915,"Ġpowerful":9916,"Ġcornfield":9917,"Ġsparse":9918,"Ġethnicity":9919,"Ġoutstre":9920,"Ġeverybody":9921,"Ġconducts":9922,"Ġinstruction":9923,"Ġbackdropped":9924,"Ġweave":9925,"Ġroughly":9926,"Ġpriv":9927,"Ġunicycles":9928,"Ġinvolves":9929,"print":9930,"Ġwakeboards":9931,"Ġpalestin":9932,"Ġjoyous":9933,"Ġdecided":9934,"Ġcruc":9935,"Ġdroplets":9936,"Ġidentically":9937,"Ġcalligra":9938,"Ġexperiments":9939,"Ġcrawl":9940,"Ġwhisk":9941,"Ġlatter":9942,"Ġbriefcases":9943,"Ġminisk":9944,"Ġmotioning":9945,"Ġtouchdown":9946,"Ġlassos":9947,"guing":9948,"Ġremod":9949,"Ġremains":9950,"Ġcomforts":9951,"Ġdragster":9952,"Ġgotten":9953,"Ġbuffalo":9954,"Ġelaborately":9955,"Ġscram":9956,"Ġscrap":9957,"Ġscrabble":9958,"Ġscrambling":9959,"Ġatmosphere":9960,"Ġchisels":9961,"Ġmaneuvering":9962,"Ġpacific":9963,"Ġviking":9964,"Ġpropeller":9965,"Ġspecialized":9966,"Ġeasy":9967,"Ġranch":9968,"Ġsunbathes":9969,"Ġavoiding":9970,"Ġascend":9971,"Ġipad":9972,"Ġgigantic":9973,"Ġstays":9974,"Ġvertically":9975,"Ġlunging":9976,"Ġbodysuits":9977,"Ġbreastfe":9978,"Ġsaddled":9979,"Ġsqueeze":9980,"Ġornaments":9981,"Ġpantyhose":9982,"Ġreleases":9983,"Ġnylon":9984,"Ġchemical":9985,"Ġwashers":9986,"Ġreviews":9987,"Ġblossom":9988,"Ġshuttered":9989,"Ġsmartphone":9990,"Ġzombies":9991,"Ġfiddle":9992,"Ġfiddles":9993,"Ġtambourines":9994,"Ġtotem":9995,"Ġproperty":9996,"Ġtwenties":9997,"Ġtraverse":9998,"Ġbagels":9999}